, 426747
. 301540
the 134992
and 96998
in 92446
und 85915
to 79071
die 78050
of 74215
a 73679
that 59696
i 55488
der 51583
sie 51461
das 49464
it 49335
ich 48588
&quot; 48430
es 47755
you 45629
ist 44585
is 42579
we 42091
wir 40958
zu 37258
&apos;s 36490
so 35926
was 33224
this 32090
? 27866
ein 25701
-- 24560
von 24102
an 24003
eine 23752
dass 23322
: 22773
den 22687
nicht 22454
they 21072
on 20204
mit 19576
er 19012
for 18951
are 18351
wie 17953
auf 17323
have 17298
what 17106
but 16817
man 16270
with 15945
can 15351
sich 15314
all 14980
aber 14642
für 14588
sind 14571
wenn 14346
haben 14203
als 14166
as 14054
&apos;t 14028
at 13788
be 13680
about 13672
there 13491
um 13423
also 13250
war 12404
diese 12123
do 11712
one 11700
not 11581
-@@ 11292
im 11058
ver@@ 10979
my 10941
&apos;re 10919
people 10625
dem 10303
if 10243
he 10214
like 10168
from 10067
or 9966
einen 9742
an@@ 9700
er@@ 9646
be@@ 9553
des 9480
uns 9335
now 9268
these 9183
just 8966
können 8789
me 8707
re@@ 8628
oder 8589
s@@ 8570
our 8544
werden 8387
hier 8372
ge@@ 8275
aus 8229
because 8220
when 8219
very 8190
un@@ 8083
hat 8073
über 7935
s 7932
out 7856
how 7774
by 7726
te 7706
einer 7694
– 7632
auch 7539
einem 7385
up 7366
know 7351
them 7208
kann 7178
going 7176
dann 7084
sehr 7002
k@@ 6974
which 6912
us 6880
t@@ 6877
ten 6829
more 6778
see 6776
had 6742
here 6728
nur 6727
think 6714
ing 6696
wird 6679
ed 6571
who 6404
gibt 6388
your 6337
in@@ 6312
en@@ 6295
ab@@ 6293
really 6287
menschen 6283
ihnen 6215
get 6193
their 6187
will 6177
then 6121
were 6118
e@@ 6110
mich 6088
would 6082
sehen 6047
d@@ 6041
g@@ 6035
a@@ 6024
&apos;ve 5921
sein 5846
world 5783
t 5770
dieser 5647
some 5642
aus@@ 5617
etwas 5594
time 5593
&apos;m 5573
ein@@ 5540
noch 5417
nach 5416
en 5372
has 5369
b@@ 5366
way 5348
don 5347
o@@ 5312
habe 5305
actually 5300
am 5229
ti@@ 5185
into 5179
i@@ 5068
mir 5060
go 5047
where 5047
; 5038
vor 4963
things 4927
bei 4922
ch@@ 4865
years 4833
e 4815
alle 4812
mehr 4782
welt 4764
- 4746
li@@ 4700
c@@ 4678
other 4668
sch@@ 4659
h@@ 4650
well 4556
no 4529
di@@ 4516
y 4515
could 4499
de@@ 4455
want 4440
ihre 4431
ma@@ 4424
p@@ 4400
r@@ 4390
leben 4361
meine 4361
g 4341
f@@ 4327
zum 4321
make 4315
da 4302
z@@ 4298
weil 4290
m@@ 4288
machen 4283
been 4251
said 4248
new 4219
ung 4190
nun 4171
dies 4170
art 4141
right 4126
wirklich 4123
st@@ 4118
m 4111
al@@ 4107
gen 4106
ar@@ 4099
she 4090
wurde 4087
dieses 4061
something 4033
kind 3996
auf@@ 3986
u@@ 3976
than 3934
al 3879
durch 3874
le@@ 3864
first 3850
se@@ 3821
two 3820
those 3791
y@@ 3787
zu@@ 3787
ri@@ 3764
immer 3758
his 3752
look 3741
l@@ 3740
unsere 3699
vor@@ 3682
zeit 3656
little 3652
tun 3649
thing 3639
ter 3633
jetzt 3609
ihr 3605
got 3594
&apos; 3591
de 3589
um@@ 3577
o 3575
wissen 3574
n@@ 3561
ge 3519
ent@@ 3493
much 3467
life 3448
back 3437
say 3421
d 3421
se 3405
hatte 3401
work 3391
end 3391
über@@ 3387
ro@@ 3374
most 3373
leute 3363
keine 3347
viel 3347
over 3345
her 3344
viele 3338
sagen 3289
diesem 3256
only 3236
po@@ 3216
eines 3203
problem 3198
ted 3195
du 3193
el@@ 3190
even 3189
denn 3186
take 3161
sagte 3144
ts 3132
or@@ 3126
mal 3104
dinge 3095
many 3072
diesen 3069
ungen 3062
zwei 3044
co@@ 3040
on@@ 3039
system 3025
able 3010
einfach 3006
waren 2986
need 2973
did 2967
bin 2947
wo 2940
alles 2940
le 2929
v@@ 2917
jahren 2912
lot 2899
sten 2895
andere 2891
müssen 2885
good 2873
around 2857
k 2849
let 2840
why 2831
pro@@ 2815
bi@@ 2812
come 2797
down 2794
t. 2794
mein 2789
use 2780
anderen 2775
&apos;ll 2768
gehen 2743
geht 2742
as@@ 2737
damit 2731
si@@ 2728
würde 2712
lo@@ 2701
w@@ 2696
bis 2690
every 2688
different 2670
zur 2665
through 2661
vielleicht 2654
at@@ 2649
th@@ 2639
ie 2626
l 2625
! 2613
ra@@ 2610
selbst 2598
put 2586
day 2581
es@@ 2571
am@@ 2551
la@@ 2539
her@@ 2530
same 2527
p 2505
being 2498
ert 2487
its 2484
ds 2466
jahre 2461
st 2454
land 2444
gut 2442
me@@ 2427
bo@@ 2423
ische 2415
doing 2394
ers 2394
ni@@ 2381
ta@@ 2375
te@@ 2363
ischen 2353
ende 2344
kommen 2344
ne@@ 2339
geben 2335
ck@@ 2323
ger 2321
con@@ 2317
heute 2296
en. 2284
j@@ 2277
three 2265
eren 2265
ated 2264
mi@@ 2263
men 2256
n 2253
muss 2252
called 2237
warum 2237
liche 2212
any 2206
schon 2204
geschichte 2203
dis@@ 2200
talk 2197
10 2195
einige 2190
tion 2169
mo@@ 2158
ja 2154
made 2152
lichen 2144
&apos;d 2143
percent 2137
macht 2137
ter@@ 2126
is@@ 2122
person 2112
ke 2110
möchte 2109
lassen 2108
tatsächlich 2108
denken 2106
ly 2104
wieder 2102
ber@@ 2096
ation 2082
ad@@ 2081
h 2073
sp@@ 2072
ch 2070
after 2070
op@@ 2064
today 2059
ha@@ 2053
sa@@ 2048
par@@ 2040
no@@ 2040
big 2034
do@@ 2032
great 2029
gt 2028
it@@ 2026
tell 2005
ger@@ 2001
kinder 1993
he@@ 1990
davon 1984
dort 1976
gi@@ 1975
unter@@ 1974
human 1968
ganz 1962
ste 1950
ken 1949
year 1949
c 1945
ve 1943
mar@@ 1943
ex@@ 1941
ging 1940
last 1927
seine 1923
fact 1915
another 1914
pe@@ 1913
lich 1911
find 1910
ern 1909
genau 1908
der@@ 1906
drei 1905
hatten 1904
ate 1903
b 1892
to@@ 1883
fe@@ 1872
ins 1866
own 1865
ob 1862
ent 1859
nehmen 1859
form 1853
darüber 1851
den@@ 1846
ihn 1834
paar 1833
sh@@ 1832
didn 1830
give 1824
ur@@ 1820
chen 1820
könnte 1820
idea 1818
r 1816
change 1807
before 1806
com@@ 1799
jahr 1798
went 1797
ei@@ 1796
should 1795
20 1789
teil 1783
started 1777
wollen 1773
thought 1771
werde 1768
ac@@ 1764
weise 1762
s. 1760
design 1755
pi@@ 1753
tra@@ 1753
ck 1747
tag 1739
hin@@ 1734
ting 1733
meiner 1732
show 1726
tions 1722
da@@ 1719
3@@ 1714
ihren 1714
ten@@ 1713
pre@@ 1712
story 1711
vi@@ 1706
off 1706
sen@@ 1701
wa@@ 1697
ho@@ 1692
tet 1692
ru@@ 1689
pa@@ 1688
never 1686
f 1684
tes 1682
for@@ 1679
während 1679
su@@ 1675
start 1674
ding 1674
denen 1671
finden 1671
course 1668
fi@@ 1668
au@@ 1665
wurden 1663
better 1662
stellen 1662
weg 1662
still 1658
ko@@ 1658
kommt 1657
im@@ 1656
important 1654
per@@ 1654
gen@@ 1651
again 1649
bu@@ 1647
ste@@ 1639
bringen 1639
jeder 1639
zwischen 1631
frage 1629
gab 1626
moment 1625
unter 1624
denke 1618
does 1617
part 1613
so@@ 1613
might 1609
sen 1609
mon@@ 1607
next 1606
dazu 1605
nen 1604
each 1601
him 1600
mu@@ 1595
gra@@ 1591
water 1590
vom 1588
used 1586
sondern 1585
beispiel 1585
em@@ 1584
ago 1581
ce 1581
wäre 1580
unserer 1579
place 1577
technology 1577
together 1574
brain 1574
man@@ 1571
sogar 1568
neue 1566
came 1565
war@@ 1561
thank 1559
bit 1556
cht 1547
qu@@ 1545
gemacht 1544
sk@@ 1540
glaube 1540
ungs@@ 1540
... 1539
doch 1537
kein 1536
kon@@ 1535
ir@@ 1532
ine 1531
mit@@ 1530
.@@ 1529
computer 1527
unser 1527
ale 1526
ä@@ 1523
x 1520
na@@ 1520
ere 1520
car@@ 1518
50 1517
fa@@ 1508
long 1507
em 1489
natürlich 1489
est 1487
hi@@ 1487
tr@@ 1487
ks 1485
ihrer 1483
ben 1481
ohne 1481
million 1477
between 1476
einmal 1476
el 1474
few 1468
zeigen 1466
too 1463
looking 1463
arbeit 1463
je@@ 1462
gerade 1462
point 1461
weiß 1458
ating 1454
sieht 1454
fall 1450
nie 1450
school 1448
hand 1446
durch@@ 1444
arbeiten 1442
ous 1438
wei@@ 1434
mean 1433
oh 1433
dafür 1433
fen 1429
weiter 1429
children 1426
sti@@ 1417
nichts 1417
30 1413
z 1413
ok 1406
sort 1403
information 1402
ö@@ 1402
maybe 1396
try 1394
du@@ 1394
br@@ 1394
würden 1394
inter@@ 1392
gu@@ 1381
gel@@ 1380
4@@ 1377
ever 1376
erste 1374
done 1373
found 1372
us@@ 1369
prozent 1369
whole 1361
verstehen 1356
vielen 1356
less 1354
love 1353
okay 1352
ded 1352
erte 1352
doesn 1350
zi@@ 1348
data 1346
sc@@ 1345
live 1342
passiert 1342
schen 1340
zurück 1339
question 1338
ersten 1332
light 1327
sagt 1326
daran 1326
may 1325
red 1324
millionen 1324
age 1322
et@@ 1322
ty 1322
w 1321
fragen 1320
all@@ 1319
isch 1319
kt 1318
wanted 1317
understand 1316
real 1316
ges 1314
ant 1314
ction 1313
example 1311
ses 1308
we@@ 1306
nach@@ 1302
sprechen 1302
four 1301
bar 1301
old 1296
ange@@ 1296
bild 1293
dar@@ 1291
ganze 1287
ct 1286
große 1285
idee 1282
using 1279
working 1278
konnte 1278
letzten 1278
min@@ 1275
women 1275
e. 1274
wer 1269
dabei 1268
ol@@ 1267
wi@@ 1265
il@@ 1262
dollar 1262
son 1262
trying 1261
mis@@ 1261
ic 1260
sta@@ 1260
etwa 1259
hal@@ 1257
tri@@ 1255
elle 1255
fast 1253
welche 1253
ot@@ 1252
call 1251
ben@@ 1249
times 1247
bar@@ 1243
ens 1238
hand@@ 1236
power 1235
city 1232
könnten 1228
d. 1227
away 1224
kids 1224
internet 1222
ze 1219
bekommen 1218
100 1216
ally 1215
always 1215
lei@@ 1213
kam 1212
seite 1211
wasser 1210
sollte 1209
chte 1209
ms 1208
money 1207
everything 1206
believe 1203
tive 1203
feel 1199
ons 1197
ziemlich 1192
frauen 1192
lin@@ 1191
space 1191
five 1188
ser@@ 1187
ff@@ 1185
meisten 1185
ul@@ 1184
ph@@ 1182
2 1181
enden 1181
geld 1179
tu@@ 1178
kan@@ 1176
country 1173
sollten 1173
ges@@ 1172
meinen 1170
ary 1168
wollte 1168
ves 1165
men@@ 1164
daten 1163
gesch@@ 1160
king 1159
meinem 1159
wor@@ 1158
dr@@ 1156
ance 1155
help 1155
om@@ 1152
sache 1152
thinking 1149
jemand 1147
ans 1143
tionen 1142
d-@@ 1141
number 1138
create 1135
pri@@ 1135
comes 1134
ak@@ 1134
kleinen 1128
ü@@ 1127
hei@@ 1126
took 1125
essen 1124
x@@ 1120
str@@ 1120
fo@@ 1119
ps 1117
second 1117
stand 1117
food 1112
technologie 1108
darauf 1107
zen 1106
mann 1104
che@@ 1103
vier 1103
wichtig 1102
science 1098
th 1098
energy 1098
ster@@ 1097
video 1097
ellen 1097
means 1096
eigentlich 1096
sense 1095
cken 1095
brauchen 1095
tion@@ 1094
eln 1093
ft 1092
ar 1091
zusammen@@ 1091
gesehen 1091
weniger 1091
making 1089
cher 1089
har@@ 1088
lernen 1087
u 1086
halten 1083
ment 1081
tz@@ 1080
getting 1077
1@@ 1074
become 1071
bri@@ 1069
quite 1068
15 1064
raum 1064
dra@@ 1063
side 1062
best 1061
ster 1061
zusammen 1061
pl@@ 1059
ker 1059
großen 1059
future 1058
china 1057
besser 1057
ganzen 1057
building 1055
small 1054
says 1053
enough 1052
tt@@ 1052
tung 1052
probably 1051
ali@@ 1046
ble 1044
menge 1042
gr@@ 1041
tro@@ 1040
&#91; 1038
&#93; 1037
rei@@ 1037
dachte 1036
go@@ 1034
bedeutet 1034
ability 1032
social 1031
cu@@ 1029
half 1027
cor@@ 1026
without 1026
licher 1023
che 1022
play 1020
ihm 1019
ab 1018
neu@@ 1017
hen 1017
star@@ 1016
det 1015
kleine 1015
stra@@ 1014
unseren 1014
glauben 1014
e-@@ 1011
res@@ 1010
zeigt 1010
home 1009
kl@@ 1009
y. 1009
3 1008
earth 1008
left 1007
ihrem 1007
talking 1006
los 1003
body 1001
lebens@@ 994
ways 990
interesting 990
stuff 988
mer@@ 987
tic 985
ci@@ 985
set 985
ag@@ 985
dollars 985
chten 985
punkt 985
5@@ 984
room 981
ties 980
6@@ 979
versuchen 978
coming 977
alen 977
gehirn 977
jedes 974
ja@@ 972
schauen 972
seen 971
gegen 971
re 970
happened 967
africa 967
wer@@ 965
grund 965
line 963
ort 963
ju@@ 962
care 960
7@@ 957
frau 957
allen 956
build 955
bei@@ 954
bes@@ 953
trans@@ 951
ausge@@ 951
ing@@ 950
ies 946
and@@ 945
global 945
jeden 945
ask 944
spielen 942
york 938
indem 938
flo@@ 936
licht 931
simple 930
anything 930
seit 928
cted 927
stri@@ 926
goes 926
while 926
führen 925
20@@ 924
beim 923
pretty 920
makes 920
ca@@ 920
per 915
erung 915
8 912
such 912
days 912
ka@@ 911
danke 911
told 910
across 909
project 909
zurück@@ 909
problems 907
high 907
planet 906
case 906
nutzen 906
health 905
erde 904
gesagt 904
move 903
ne 903
the@@ 902
once 902
5 901
lives 900
gl@@ 899
ner 899
living 897
ell 897
zukunft 897
ken@@ 895
seiner 895
8@@ 893
film 893
teilen 893
bauen 893
keinen 892
wahrscheinlich 892
basically 891
sub@@ 891
eigenen 891
happen 887
car 887
book 886
fl@@ 885
dan@@ 884
mor@@ 883
ws 883
fünf 882
gute 882
saw 880
des@@ 879
4 879
bad 878
erten 877
1 876
gs 876
imagine 875
else 875
tan@@ 874
test 873
ones 871
schaffen 871
hätte 871
später 870
yet 869
ap@@ 868
ts@@ 868
hin 868
40 865
zer@@ 865
19@@ 864
mil@@ 864
fu@@ 863
picture 862
wo@@ 861
9@@ 860
having 859
ba@@ 858
nein 858
cy 856
countries 856
ku@@ 856
lu@@ 855
happens 854
stehen 854
jede 853
jo@@ 851
super@@ 851
dung 851
tern 851
arten 851
sche 850
ung@@ 849
cht@@ 848
rate 847
family 846
business 845
job 844
mind 843
pen@@ 843
asked 842
stadt 842
stellt 841
tig 841
iert 841
ings 840
team 840
hard 840
experience 839
s-@@ 838
heraus 838
tor@@ 837
sion 836
young 835
later 835
hö@@ 835
kom@@ 834
sah 834
sure 833
probleme 833
ß@@ 833
ke@@ 832
6 830
nature 830
lange 829
anzu@@ 827
name 826
sicher 826
pp@@ 824
tigen 824
pro 823
ungefähr 823
learn 822
ia 822
ideas 821
hu@@ 821
setzen 820
pres@@ 819
schule 819
pu@@ 818
tre@@ 818
over@@ 816
2@@ 816
wunder@@ 816
welt@@ 815
energie 815
inside 813
ver 813
ful 811
ged 810
sur@@ 807
y-@@ 805
lang 805
ell@@ 803
everybody 803
nu@@ 803
zwei@@ 803
wenig 803
bur@@ 802
lan@@ 802
ors 801
under@@ 800
six 800
7 800
&amp; 799
ely 796
t-@@ 796
liches 796
mal@@ 795
history 795
state 794
rest 794
kte 794
reason 793
ll@@ 793
child 792
mutter 792
funktioniert 792
konnten 792
open 791
top 790
single 790
process 790
saying 788
systems 788
billion 788
states 787
ler 786
both 786
kor@@ 785
buch 785
et 783
bel@@ 783
cks 782
oft 782
neuen 782
sts 780
ches 780
richtig 780
teil@@ 780
sing 779
ga@@ 779
within 779
heißt 779
helfen 779
nothing 778
whether 778
erst 778
almost 777
fol@@ 776
ure 775
ou@@ 775
ity 773
körper 773
looks 772
genug 772
bring 770
fan@@ 770
tieren 770
sel@@ 769
sage 767
liebe 767
erzählen 767
far 765
recht 765
lich@@ 764
tige 764
cells 763
nächsten 760
already 759
ig@@ 759
level 758
schnell 758
weit 758
material 757
remember 756
tete 755
keep 754
es. 754
music 754
kten 754
ars 753
gets 752
% 752
möglich 752
ideen 752
lage 751
unserem 751
gruppe 751
els 750
ry 749
under 749
cancer 749
bisschen 749
hören 749
ari@@ 748
ok@@ 747
ton 746
gan@@ 746
braucht 744
mer 743
afrika 743
begann 743
bor@@ 741
les 741
gern 741
ations 740
house 738
anders 738
ber 737
gro@@ 735
order 735
seinen 735
possible 734
heard 733
guy 733
fin@@ 733
einander 733
darum 732
leuten 732
wrong 731
stor@@ 731
hope 730
ments 730
looked 730
elt 730
fer@@ 729
mittel@@ 729
ma 728
projekt 728
bevor 728
überall 727
can@@ 726
alt 726
community 725
bio@@ 725
schul@@ 725
är@@ 725
ner@@ 724
manchmal 724
ates 723
ie@@ 723
out@@ 723
bau@@ 723
often 722
mm@@ 722
geb@@ 722
euch 722
group 721
beautiful 721
ieren 721
heit 720
true 719
matter 717
ters 717
sachen 716
ßen 716
col@@ 714
off@@ 714
face 714
reden 713
.000 712
por@@ 711
built 711
research 711
piece 710
public 710
land@@ 710
wel@@ 710
je 710
planeten 709
ven@@ 708
wieder@@ 708
ents 707
read 706
ban@@ 706
fahr@@ 706
gener@@ 705
tur@@ 705
united 704
cre@@ 704
ob@@ 704
late 702
eg@@ 701
ness 700
wal@@ 700
und@@ 699
entwickelt 699
fer 698
months 698
fe 698
spiel@@ 698
ling 697
answer 697
sei 697
dank 696
someone 695
9 694
tional 693
india 692
milliarden 692
situation 691
god 691
sagten 691
gehört 691
0s 690
natur 690
sha@@ 689
taking 689
universe 689
seinem 689
ved 688
places 687
works 687
dro@@ 687
head 686
cap@@ 686
besch@@ 686
wert 686
instead 685
stories 685
myself 685
ence 684
bt 684
lie@@ 684
unternehmen 684
ase 683
zellen 683
amazing 682
since 682
pan@@ 682
until 681
words 681
education 681
liegt 681
yes 679
ün@@ 678
mädchen 678
tze 677
isn 676
informationen 676
ator 675
gend 675
wissenschaft 673
species 672
sometimes 672
usa 672
anderes 672
tation 671
kennen 671
gel 670
ving 669
ischer 669
dna 668
pf@@ 668
schi@@ 668
control 666
eins 666
heraus@@ 666
turn 665
ourselves 665
199@@ 665
fand 665
led 664
front 664
12 664
mp@@ 664
/ 664
government 664
revolution 663
tat 662
tische 662
nennen 662
night 661
decided 661
25 661
nor@@ 659
— 659
te. 659
somebody 658
ics 658
psych@@ 657
generation 657
kr@@ 656
ment@@ 654
sei@@ 654
besonders 654
deshalb 654
gh@@ 653
ki@@ 653
va@@ 652
middle 651
erkennen 651
fil@@ 650
couple 649
hr@@ 649
weiter@@ 649
versch@@ 649
rather 648
zeit@@ 648
bilder 648
än@@ 648
heart 647
steht 647
turns 645
ic@@ 645
zei@@ 645
gemein@@ 645
fr@@ 644
bl@@ 643
ev@@ 643
machte 642
enti@@ 641
language 641
gar 641
ern@@ 640
teile 640
happy 639
gesellschaft 639
stück 639
spiel 638
gleich 638
ene 637
gestellt 637
sprache 637
namens 637
model 636
gefühl 636
exactly 635
kinds 635
stop 635
sau@@ 635
wasn 634
flu@@ 634
bil@@ 634
alten 634
tischen 634
wegen 633
geschichten 633
lichkeit 633
ten. 631
large 631
hoch@@ 631
cra@@ 630
viel@@ 630
familie 630
society 629
though 629
up@@ 629
zed 629
run 629
bereits 628
wasser@@ 627
bra@@ 626
woman 626
führt 626
auszu@@ 626
treffen 626
verändern 625
tru@@ 624
vater 624
wür@@ 623
act 622
word 622
far@@ 622
minuten 622
mel@@ 621
verschiedene 621
irgend@@ 621
fü@@ 621
company 620
completely 620
itself 620
everyone 620
themselves 619
dich 619
benutzen 619
mother 618
sho@@ 618
char@@ 618
id 617
stre@@ 617
ton@@ 616
animals 615
ce@@ 615
möglichkeit 615
ach@@ 614
became 614
win@@ 614
musste 614
game 613
bas@@ 613
fla@@ 613
lau@@ 613
oben 613
erreichen 613
hren 613
sechs 613
dy 612
share 612
students 612
kal@@ 612
cr@@ 611
tter@@ 611
hätten 611
enen 611
80 610
fra@@ 610
gang 610
shows 609
minutes 609
ele@@ 609
v 609
lebens 609
must 608
ziehen 608
evolution 607
antwort 607
sor@@ 606
news 606
kat@@ 606
musik 606
gar@@ 605
frei@@ 605
indien 605
sal@@ 603
sto@@ 603
tragen 603
klar 603
don@@ 602
cke 602
darin 602
auto@@ 600
learned 600
innovation 599
60 598
hear 598
american 597
happening 596
created 595
friends 595
environment 595
study 595
haus 595
tiven 595
air 594
oper@@ 594
america 593
hab@@ 593
meter 593
huge 592
end@@ 592
experiment 592
oil 592
stat@@ 592
gerne 592
einzige 592
third 590
gene 590
net 589
gen. 589
jedem 589
falls 588
sound 588
lar@@ 588
view 588
fre@@ 588
hours 587
os 586
natural 585
cur@@ 585
tiere 585
kopf 585
wh@@ 584
hl@@ 584
century 584
cher@@ 584
einigen 584
tiert 584
mittel 584
ess@@ 583
ide@@ 581
besten 581
lation 580
ys 580
gkeit 579
won 578
ther@@ 577
ori@@ 577
stic 576
yeah 575
nung 575
augen 575
arm 574
innerhalb 574
vo@@ 573
pos@@ 573
dessen 573
länder 572
disease 570
along 570
self-@@ 570
ist@@ 570
pas@@ 569
nis 569
onen 569
irgendwie 569
niemand 569
guys 568
population 568
sed 568
pla@@ 568
entwickeln 567
stunden 567
gleichen 567
gleich@@ 566
worked 565
ism 564
sam@@ 564
ces 564
figure 564
market 563
particular 563
perhaps 563
san@@ 563
schreiben 563
fish 562
bringt 562
turned 561
based 561
gleiche 561
aufge@@ 561
äu@@ 561
moving 560
bre@@ 560
area 560
early 560
ven 560
schließlich 560
knew 559
national 559
ess 559
ran@@ 559
ß 559
center 558
ckt 558
lots 557
couldn 557
questions 557
against 557
tten 556
gott 556
gte 556
clo@@ 555
wachsen 555
dat@@ 554
cal 554
obwohl 554
verhalten 554
18@@ 553
hol@@ 553
gegen@@ 553
verschiedenen 553
soll 553
regierung 553
menschlichen 552
gebäude 552
gave 551
kindern 551
during 550
enz 550
ocean 549
known 549
my@@ 549
0@@ 549
hor@@ 548
machine 548
tisch 548
bewegen 548
zing 547
del@@ 547
grund@@ 547
rec@@ 546
ted@@ 546
wing 544
learning 544
physi@@ 544
past 544
lt 544
takes 544
ka 544
lässt 544
cri@@ 543
others 542
kre@@ 541
least 540
table 540
hn@@ 540
gebracht 540
schaft 540
beiden 539
200 538
vorstellen 538
cell 537
ur 537
rie@@ 537
möglichkeiten 537
mü@@ 537
dri@@ 536
position 536
aren 535
500 535
erhalten 535
patienten 535
vision 534
phone 533
eth@@ 533
scale 533
sie@@ 533
verwenden 533
nämlich 533
cts 532
lose 532
schw@@ 532
nimmt 532
syn@@ 531
fri@@ 530
plan 530
outside 529
finally 529
ture 529
eltern 529
aller 528
kraft 528
ändern 528
indi@@ 527
wir@@ 527
dir 527
father 526
free 526
aten 526
selbst@@ 526
bs 525
culture 525
online 525
tau@@ 525
kes 524
ground 523
needs 523
entire 523
genommen 523
difference 522
yo@@ 522
taken 521
david 521
cing 521
close 521
mus@@ 521
tage 521
chter 521
tions@@ 521
ec@@ 520
ying 520
key 520
media 520
stellte 520
wollten 520
krebs 520
männer 520
lesen 520
gre@@ 519
kin@@ 519
chance 519
drei@@ 519
seven 518
wonderful 518
son@@ 518
len 518
voll@@ 518
tal@@ 517
isches 517
lösung 517
ined 516
version 516
rück@@ 516
fähigkeit 516
gri@@ 515
ant@@ 515
na 515
arti@@ 515
damals 514
kar@@ 513
patient 513
schwer 513
entwicklung 513
führ@@ 513
beginnen 513
uni@@ 512
wirtschaft 512
coun@@ 511
flie@@ 511
poli@@ 510
pt 510
green 509
thousands 509
google 509
fest@@ 509
bat@@ 508
stelle 508
bitte 507
auto 506
formen 506
image 505
glück 505
plan@@ 504
met 504
ders 504
kunst 504
schü@@ 504
lehr@@ 504
versucht 504
fort@@ 503
cli@@ 503
daher 503
fac@@ 502
lösen 502
wohl 502
universum 502
powerful 501
kamen 501
hoch 501
fangen 501
anti@@ 500
tt 500
bal@@ 500
lö@@ 500
staaten 500
gten 500
cking 499
force 499
schla@@ 499
fahren 499
sinn 499
parts 498
seeing 498
unglaublich 498
whatever 497
mus 497
kultur 497
stage 496
11 496
ziert 496
herum 496
hinter 496
nächste 496
behind 495
tend 495
ften 495
sü@@ 495
wahr@@ 495
überhaupt 495
west 494
given 494
ls 494
changed 494
ust 494
bro@@ 494
tter 494
kop@@ 494
hause 494
hlt 494
certain 493
ren@@ 493
grow 492
leave 492
visu@@ 492
rech@@ 492
spezi@@ 492
cost 491
stoff 491
regi@@ 490
bin@@ 490
zwar 490
laufen 490
richtung 490
pped 489
beginning 489
yourself 489
legen 489
angst 489
ssen 489
getan 489
tut 489
blick 489
baren 488
nachdem 488
gene@@ 487
spi@@ 487
spend 487
software 487
fühlen 487
pal@@ 486
walk 486
isi@@ 486
span@@ 486
bom@@ 486
nt 486
gung 486
sicht 486
amount 484
nan@@ 484
parents 484
menschliche 484
bon@@ 483
size 483
zt 483
junge 483
full 482
chan@@ 482
fly 482
wind 482
18 482
tat@@ 482
audience 482
kol@@ 482
hilfe 482
belie@@ 481
wort 481
teten 481
leben@@ 481
neuro@@ 480
ini@@ 480
terms 480
tzen 480
voll 480
bewegung 480
dern 480
alter 479
deren 479
allem 479
death 478
normal 478
street 478
eyes 478
fis@@ 478
interested 478
modell 478
einge@@ 478
grunde 478
zahlen 478
cy@@ 477
low 477
ang@@ 477
letzte 477
cannot 476
economic 476
krieg 476
gest@@ 476
kü@@ 476
zahl 476
nahmen 475
verändert 475
buy 474
spr@@ 474
sive 474
hiv 474
hnen 474
ns 473
baby 473
top@@ 473
ser 473
tors 472
medi@@ 472
eight 472
äl@@ 472
üb@@ 471
kurz 471
ris@@ 470
cool 470
eher 470
cho@@ 469
began 469
labor 469
pe 468
sum@@ 468
groß 468
krei@@ 468
common 467
air@@ 467
pul@@ 466
ats 466
easy 466
field 466
bare 466
haus@@ 466
black 465
local 465
fal@@ 465
tä@@ 465
dete 465
maschine 465
ked 464
ard 464
felt 464
region 464
books 464
mes 463
cat@@ 463
cally 463
ill@@ 463
sted 463
weg@@ 463
wider@@ 463
dingen 463
schön 463
week 462
tte 462
genden 462
difficult 461
eu@@ 461
ht 460
worden 460
wand@@ 459
zen@@ 459
blu@@ 459
fel@@ 459
schu@@ 459
hy@@ 458
value 458
fanden 458
sterben 458
unten 458
erfahrung 458
wissenschaftler 458
gone 457
sin@@ 457
treten 457
welches 457
cities 456
unterschied 456
groß@@ 456
meines 456
nahm 456
squ@@ 455
web 455
ien 455
jungen 455
pur@@ 454
ship 454
len@@ 454
posi@@ 454
deal 453
kur@@ 453
en-@@ 453
tief@@ 453
tiv 453
ously 452
hands 452
fru@@ 452
est@@ 452
code 452
needed 451
enten 451
weitere 451
jedoch 451
simply 450
ned 450
ing. 450
vari@@ 450
fall@@ 450
eigene 450
findet 450
körper@@ 450
mechan@@ 449
south 449
rau@@ 449
kti@@ 449
eller 448
spent 448
blue 448
asi@@ 448
longer 447
friend 447
cting 447
lung 447
ther 447
realized 446
schä@@ 446
grün@@ 446
wohl@@ 446
inv@@ 445
cer@@ 445
it. 445
paper 445
neu 445
mag 445
ums 444
either 443
humans 443
personal 443
ord@@ 443
boden 443
forschung 443
,@@ 442
micro@@ 442
n. 442
betrachten 442
kaufen 442
fliegen 442
step 441
tried 441
las@@ 441
muster 441
atom@@ 440
anfang 440
mission 439
ziel 439
kosten 439
incredible 438
dly 438
ker@@ 438
wen@@ 438
beste 438
born 437
prin@@ 437
dig 437
lieben 437
growth 436
thema 436
bildung 436
roboter 436
sitting 435
inten@@ 435
solche 435
ality 434
fas@@ 434
hinter@@ 434
mas@@ 433
pat@@ 433
sex 433
forward 432
ice 432
verbindung 432
platz 432
lehrer 432
surface 431
white 431
bes 431
ast 430
girl 430
fro@@ 430
mussten 430
erinnern 430
wohn@@ 430
watch 429
equ@@ 429
vis@@ 429
feet 429
tin@@ 429
autos 429
hier@@ 429
tzt 429
genauso 429
direkt 429
fragte 429
ical 428
lost 428
schau@@ 428
prozess 428
quickly 427
kri@@ 427
vortrag 427
gebaut 427
companies 426
woche 426
complex 425
blo@@ 425
wouldn 425
clear 425
studi@@ 425
bel 425
enth@@ 425
län@@ 425
mati@@ 424
zweite 424
structure 423
growing 423
han@@ 423
eli@@ 423
hü@@ 423
publikum 423
pay 422
od@@ 422
jobs 422
om 422
bank 422
ze@@ 422
ße 422
hel@@ 421
miles 421
markt 421
ismus 421
bereich 421
u.s. 420
zer 419
198@@ 419
knowledge 419
selben 419
freunde 419
einzu@@ 419
falsch 419
cal@@ 418
john 418
virus 418
wol@@ 418
dau@@ 418
stoff@@ 418
namen 418
minute 417
board 417
pac@@ 417
zes 417
university 417
a-@@ 417
pr@@ 417
stand@@ 417
schle@@ 417
bleiben 417
berei@@ 417
poor 416
chen@@ 416
sieben 416
hold 415
sea 415
fallen 415
gew@@ 415
ative 414
political 414
box 413
yp@@ 413
tages 413
pra@@ 413
sicht@@ 413
glück@@ 413
sil@@ 412
ft@@ 412
arch@@ 412
gedanken 412
guten 412
größte 412
danach 412
interessant 412
suchen 412
sollen 412
ologie 412
reality 411
sun 411
religion 411
tives 411
technologies 411
hlen 411
zuvor 411
giving 410
gefunden 410
eat 409
economy 409
proje@@ 409
animal 409
ame 409
gol@@ 408
weeks 408
fun@@ 408
pun@@ 408
wusste 408
monate 408
neues 408
ales 407
il 407
mine 407
fle@@ 407
positive 406
hast 406
brought 405
mag@@ 405
plötzlich 405
theorie 405
cul@@ 404
developed 404
gers 404
nte 404
zä@@ 404
70 403
cked 402
cla@@ 402
morning 402
scientists 402
hey 402
sy@@ 402
wären 402
wrote 401
changes 401
produ@@ 401
opportunity 401
patients 401
la 401
besteht 401
zehn 401
behavior 400
colle@@ 400
telling 400
head@@ 400
college 400
sch 400
setzt 400
wahr 400
anyone 399
wes@@ 399
mikro@@ 399
bot@@ 398
offen@@ 398
deli@@ 398
starting 398
o-@@ 398
ander@@ 398
program 397
histor@@ 397
write 397
source 397
hom@@ 396
90 396
musi@@ 396
tier@@ 396
erschaffen 396
digen 396
technologien 396
fing 395
ey 395
identi@@ 395
vol@@ 395
ill 395
sig@@ 395
lam@@ 395
fli@@ 395
kli@@ 395
anderer 395
völlig 395
prote@@ 394
designer 394
fun 394
cam@@ 394
museum 394
fest 394
struktur 394
ihres 394
feeling 393
cut 393
radi@@ 393
ball 393
ah 393
jen@@ 393
wall 392
glücklich 392
testen 392
gemeinschaft 392
dlich 392
potential 391
theory 391
ppe 391
gives 390
modern 390
tic@@ 390
climate 390
ham@@ 390
tho@@ 390
computer@@ 390
draußen 390
ör@@ 390
zuerst 390
ning 389
tools 389
mate 389
tical 389
ss@@ 389
den. 389
manche 389
wochen 389
sehe 389
reise 389
ta 388
areas 388
non-@@ 388
,000 388
images 388
gelernt 388
ig 387
vers 387
a. 387
reihe 387
bed 386
ched 386
inst@@ 386
understanding 386
zo@@ 386
technik 386
lab 385
nei@@ 385
vel@@ 385
essen@@ 385
ha 385
größe 385
strei@@ 385
kinder@@ 384
discovered 384
yed 384
impro@@ 384
aff@@ 384
lang@@ 384
beru@@ 384
sicherheit 384
flug@@ 384
nice 383
gas 383
law 383
herr@@ 383
luft 383
gegeben 383
ländern 383
refle@@ 382
ik 382
fel 382
uren 382
fied 381
sing@@ 381
wand 381
gewal@@ 381
möchten 381
plat@@ 380
moral 380
short 380
swe@@ 380
sol@@ 380
ths 380
literally 380
unseres 380
ca 379
ss 379
klein@@ 379
heiten 379
seems 378
ye@@ 378
ch. 378
hervor@@ 378
interessan@@ 378
bewusst 378
beginnt 378
attention 377
challenge 377
deep 377
speak 377
playing 377
cars 376
links 376
systeme 376
bist 376
scheint 376
stu@@ 375
she@@ 375
bran@@ 375
tun@@ 375
schritt 375
aussehen 375
flü@@ 375
realize 374
tiv@@ 374
mt 374
feld 374
miteinander 374
aufzu@@ 374
bereit 374
produce 373
main 373
fully 373
average 373
forms 373
sli@@ 373
00@@ 373
anzahl 373
lat@@ 372
access 372
diagno@@ 372
ble@@ 372
gs@@ 372
acht 372
morgen 372
general 371
numbers 371
anstatt 371
erklären 371
pping 370
ese 370
arbeitet 370
sorgen 370
studenten 370
funktionieren 370
ented 369
ently 369
dr. 369
bli@@ 369
16 369
zeug 369
auth@@ 368
map 368
girls 368
wat@@ 368
g. 368
erzählt 368
proz@@ 368
tatsache 368
prä@@ 368
cop@@ 367
uses 367
dem@@ 367
died 367
glob@@ 367
ung. 367
ist. 367
eigen@@ 367
daraus 367
amerika 367
north 366
computers 366
sters 366
egal 366
niemals 366
denkt 366
changing 365
mat@@ 365
physical 365
not@@ 365
running 365
nis@@ 365
aufgabe 365
gruppen 365
mache 365
tö@@ 365
bottom 364
fir@@ 364
infe@@ 364
hundreds 364
developing 364
mars 364
cker 364
oren 364
brachte 364
nachdenken 364
nten 364
gewesen 364
tel@@ 363
digital 363
stell@@ 363
ige 363
cket 362
movement 362
materials 362
ad 362
english 362
person@@ 362
schaften 362
jemals 362
karte 362
vent@@ 361
absolutely 361
ank@@ 361
passieren 361
gerät 361
nobody 360
imm@@ 360
individual 360
creating 360
les@@ 360
hen@@ 360
anfangen 360
spricht 360
geworden 360
bekannt 360
ley 359
ement 359
ology 359
000 359
mehr@@ 359
millions 358
log@@ 358
result 358
shape 358
analy@@ 358
vorstellung 358
nacht 358
argu@@ 357
bru@@ 357
gende 357
verwendet 357
gesicht 357
lin 356
ve@@ 356
mathemati@@ 356
mensch 356
kleines 356
preis 356
zeich@@ 356
firma 356
arbei@@ 356
wäl@@ 356
tex@@ 355
hon@@ 355
dom@@ 355
billi@@ 355
quality 355
medical 355
alone 355
vier@@ 355
sicher@@ 355
jahrhundert 355
bevölkerung 355
straße 355
bücher 355
spo@@ 354
recently 354
tab@@ 354
student 354
mm 354
haupt@@ 354
zentr@@ 354
zeige 354
development 353
clu@@ 353
tas@@ 353
innen 353
mot@@ 352
300 352
chinese 352
gesundheit 352
größten 352
traum 352
fehl@@ 352
town 351
mental 351
compassion 351
dig@@ 351
ans@@ 351
ball@@ 351
betra@@ 351
herz@@ 351
beide 351
major 350
designed 350
wish 350
dic@@ 350
emp@@ 350
techni@@ 350
bekommt 350
gingen 350
wä@@ 350
öl@@ 350
london 349
focus 349
cin@@ 349
showed 349
chi@@ 349
bet@@ 349
sä@@ 349
ppen 349
folgen 349
genannt 349
stimmt 349
ore 348
connected 348
chris 348
east 348
aler 348
laden 348
gän@@ 348
für@@ 348
messen 348
sonst 348
ration 347
relationship 347
product 347
back@@ 347
human@@ 347
afghanistan 347
gebiet 347
schwierig 347
soziale 347
ständig 347
geh@@ 347
verste@@ 347
tor 346
listen 346
knows 346
lea@@ 346
cent 346
blood 346
wn 346
ente 346
kel 346
umgebung 346
industry 345
tier 345
cro@@ 345
1,@@ 345
seem 344
pil@@ 344
save 344
stan@@ 344
haven 344
solution 344
hil@@ 344
holen 344
stimme 344
ctions 343
obviously 343
gezeigt 343
ßt 343
schreck@@ 343
ingly 342
talks 342
moved 342
anybody 342
send 342
dre@@ 342
vie@@ 342
program@@ 342
scht 342
liegen 342
schulen 342
support 341
kid 341
wil@@ 341
dark 341
likely 341
talked 341
wahl 341
oberfläche 341
m. 340
tics 340
security 340
politik 340
schwier@@ 340
incredibly 339
tiny 339
soon 339
versuche 339
schrieb 339
gefü@@ 339
foto 339
allein 339
begin 338
park 338
especially 338
allow 338
lar 338
kam@@ 338
mein@@ 338
jemanden 338
ffe 337
cou@@ 337
exist@@ 337
ils 337
stark 337
type 337
sonnen@@ 337
kontrolle 337
krankheit 337
richtige 337
dungen 337
teri@@ 336
available 336
reg@@ 336
leu@@ 336
zeiten 336
network 335
issue 335
pflanzen 335
seiten 335
ähn@@ 335
wahrheit 335
ute 334
becomes 334
ed@@ 334
writing 334
happiness 334
multi@@ 334
kompli@@ 334
zier@@ 334
benutzt 334
städte 334
werte 334
class 333
new@@ 333
beyond 333
eit 333
kleiner 333
mö@@ 333
taten 333
solve 332
ining 332
lived 332
impact 332
dete@@ 332
bilden 332
schaff@@ 332
hälfte 332
spiele 332
gal@@ 331
continu@@ 331
effect 331
high-@@ 331
ff 331
liter@@ 331
blin@@ 331
wur@@ 331
rolle 331
lä@@ 331
regeln 331
sm@@ 330
smo@@ 330
verb@@ 330
meinung 330
onto 329
sun@@ 329
present 329
ared 329
explain 329
schwer@@ 329
verbunden 329
hour 328
worth 328
ras@@ 328
einfache 328
satz 328
lab@@ 327
cs 327
depen@@ 327
action 327
appe@@ 327
perfect 327
st. 327
aids 327
schaut 327
mass 326
resources 326
kle@@ 326
zelle 326
veränderung 326
tausende 326
geschrieben 326
genen 326
operation 325
scientific 325
biolog@@ 325
active 325
essi@@ 325
guess 325
international 325
industri@@ 325
bab@@ 325
leicht 325
wär@@ 325
sozi@@ 325
gegenüber 325
bigger 324
training 324
ession 324
sus@@ 324
ingen 324
gesam@@ 324
statt 324
hoffe 324
bedeutung 324
zieren 324
cles 323
office 323
gue 323
western 323
mitte 323
entfernt 323
schei@@ 323
hop@@ 322
lon@@ 322
europe 322
groups 322
richard 322
leg@@ 321
dead 321
form@@ 321
tells 321
putting 321
strong 321
fear 321
games 321
machten 321
schlecht 321
197@@ 320
solar 320
14 320
ass 320
please 320
w. 320
fähigkeiten 320
lebt 320
sonne 320
tät 320
erreicht 320
drive 319
hun@@ 319
device 319
tel 319
chtet 319
weisen 319
cle@@ 318
rein@@ 318
reasons 318
algorith@@ 318
sting 318
lines 318
finde 318
mögen 318
hält 318
boy 317
glo@@ 317
xi@@ 317
meet 317
teach 317
spro@@ 317
gesprochen 317
basis 316
roll@@ 316
extra@@ 316
tren@@ 316
aller@@ 316
geboren 316
äch@@ 316
abzu@@ 316
rules 315
ren 315
hau@@ 315
gh 315
mä@@ 315
wirk@@ 315
ei 315
vereinigten 315
programm 315
wann 315
ced 314
ak 314
mes@@ 314
0-@@ 314
schie@@ 314
komplett 314
hä@@ 314
stellung 314
freund 314
eng@@ 313
voice 313
schools 313
exc@@ 313
special 313
nutz@@ 313
beziehung 313
studie 313
med 312
plant 312
econom@@ 312
color 312
liber@@ 312
bill 312
nation 312
website 312
vit@@ 312
rat@@ 312
gei@@ 312
fä@@ 312
heutzutage 312
schein@@ 312
zimmer 312
several 311
towards 311
ror 311
bewegt 311
einzelne 311
similar 310
pictures 310
ot 310
ignor@@ 310
eless 310
ise 310
geri@@ 310
gesundheits@@ 310
tungen 310
ically 309
our@@ 309
village 309
dynam@@ 309
dru@@ 309
klu@@ 309
ober@@ 309
schließen 309
interessiert 309
teilt 309
stam@@ 308
trau@@ 308
absolut 308
gekommen 308
mäch@@ 308
erfolg 308
particularly 307
issues 307
activity 307
er-@@ 307
projects 307
ack@@ 307
energi@@ 307
dachten 307
gesamte 307
bekam 307
sent 306
suddenly 306
speed 306
$ 306
road 306
rus@@ 306
asking 306
foot@@ 306
dou@@ 306
gas@@ 306
kil@@ 306
port@@ 306
ang 306
llen 306
ktion 306
elektr@@ 306
ebene 306
voller 306
list 305
door 305
involved 305
cen@@ 305
teachers 305
break 305
sions 305
schwar@@ 305
ani@@ 305
hi 305
finger 305
sofort 305
ansehen 305
dest 304
eye 304
indeed 304
on-@@ 304
risk 304
male 304
tan 304
bald 304
tod 304
trotzdem 304
sionen 304
robot 303
herauszufinden 303
verl@@ 303
normalerweise 303
komme 303
ligh@@ 302
dy@@ 302
ach 302
recor@@ 302
ably 302
symme@@ 302
basic 302
spa@@ 302
star 302
mensch@@ 302
krankheiten 302
herausforderung 302
offensichtlich 302
liert 302
wieso 302
bedeu@@ 302
sahen 302
fehler 302
verloren 302
befinden 302
herum@@ 302
mic 301
nine 301
fig@@ 301
wichtige 301
gesetzt 301
pfen 301
öl 301
evidence 300
spe@@ 300
carbon 300
respe@@ 300
hundred 300
certainly 300
hle 300
seh@@ 300
musli@@ 300
mei@@ 300
langen 300
ped 299
hat@@ 299
hit 299
sl@@ 299
sounds 299
cha@@ 299
hän@@ 299
ähnlich 299
geschieht 299
stellten 299
nisse 299
deten 299
änder@@ 299
mitgefühl 299
demo@@ 298
iger 298
tagen 298
wachstum 298
schnitt 298
an. 297
starts 297
smart 297
ching 297
ures 297
virtu@@ 297
mc@@ 297
er. 297
lieren 297
überrasch@@ 297
linie 297
0ern 297
kannst 297
object 296
beri@@ 296
page 296
formed 296
message 296
brechen 296
möglichen 296
ina 295
grand@@ 295
din@@ 295
explo@@ 295
dec@@ 295
q@@ 295
nen@@ 295
igen 295
stimmen 295
nennt 295
ast@@ 294
13 294
sand 294
ath@@ 294
jahrzehn@@ 294
hoffnung 294
netz@@ 294
gearbeitet 294
stay 293
brea@@ 293
wants 293
ny 293
milli@@ 293
temp@@ 293
besu@@ 293
ators 292
anyway 292
ow@@ 292
sell 292
halte 292
ral 291
ray 291
10@@ 291
ket@@ 291
europa 291
kunst@@ 291
ergebnis 291
sprach 291
mieren 291
unge@@ 291
pain@@ 290
matic 290
de. 290
24 290
edi@@ 290
ward 290
truth 290
kö@@ 290
künstler 290
bewusstsein 290
ferti@@ 289
los@@ 289
mark 289
iran 289
wie@@ 289
hung 289
klas@@ 289
führte 289
ehr@@ 289
choice 288
everywhere 288
reach 288
ra 288
ear@@ 288
rich@@ 288
peace 288
wan@@ 288
walking 288
umwelt@@ 288
druck@@ 288
passen 288
grenzen 288
schrei@@ 288
sitzen 288
entscheidungen 288
showing 287
month 287
inn@@ 287
wait 287
eben 287
row 286
val@@ 286
down@@ 286
halt 286
interest 286
cations 286
fire 286
tou@@ 286
techn@@ 286
wesen 286
skin 285
ots 285
ful@@ 285
hospital 285
total 285
further 285
jahr@@ 285
gleichzeitig 285
notice 284
plants 284
tin 284
power@@ 284
van@@ 284
dd@@ 284
gewinnen 284
sozialen 284
fälle 284
bestimmten 284
tlich 284
self 283
medicine 283
sou@@ 283
merk@@ 283
stän@@ 283
wichtiger 283
folge 283
nahme 283
alte 283
examples 282
store 282
japan 282
scho@@ 282
san 282
partner 282
esti@@ 282
totally 282
200@@ 282
non@@ 282
ature 282
pattern 282
besit@@ 282
schl@@ 282
trä@@ 282
hielt 282
läuft 282
weltweit 282
nachhal@@ 282
biggest 281
professor 281
tly 281
rise 281
shu@@ 281
develop 281
zero 281
nuclear 281
orte 281
länger 281
übrigens 281
vergessen 281
zentrum 281
hört 281
x-@@ 280
frequ@@ 280
named 280
journey 280
add 280
ases 280
redu@@ 280
brau@@ 280
klei@@ 280
sobald 280
beobachten 280
monaten 280
einzelnen 280
spei@@ 280
daten@@ 280
grew 279
fron@@ 279
measure 279
sit 279
foot 279
ol 279
follow 279
lagen 279
enor@@ 279
fte 279
rede 279
begannen 279
denk@@ 279
großer 279
poin@@ 278
ready 278
ants 278
196@@ 278
ian 278
repor@@ 278
exciting 278
kla@@ 278
orten 278
anschauen 278
krie@@ 278
gewöhn@@ 278
kultur@@ 278
staat@@ 278
gutes 278
richtigen 278
among 277
tal 277
period 277
bedro@@ 277
ony 277
democracy 277
perfe@@ 277
größer 277
tigt 277
ationen 277
fine 276
extraordinary 276
al-@@ 276
syste@@ 276
ences 276
lead 276
sper@@ 276
sky 276
service 276
schn@@ 276
lern@@ 276
realität 276
deine 276
erd@@ 276
ended 275
cru@@ 275
pick 275
loo@@ 275
400 275
mul@@ 275
spre@@ 275
hab 275
effizi@@ 275
eventually 274
teacher 274
ines 274
dor@@ 274
druck 274
fische 274
aufmerksamkeit 274
großes 274
firmen 274
wert@@ 274
ordnung 274
fassen 274
gedacht 274
punkte 274
außer 274
rela@@ 273
bus@@ 273
ctive 273
ming 273
dance 273
hl 273
treiben 273
abge@@ 273
ären 273
bessere 273
schneller 273
sh 272
bul@@ 272
thre@@ 272
cultural 272
wander@@ 272
za@@ 272
eig@@ 272
gemeinsam 272
ließ 272
volle 272
produkt 272
sieren 272
acc@@ 271
shi@@ 271
cl@@ 271
posed 271
obser@@ 271
largest 271
web@@ 271
visual 271
extremely 271
k. 271
except 271
arab@@ 271
pit@@ 271
nam@@ 271
stoffe 271
vorher 271
halb 271
st-@@ 270
standing 270
organization 270
ages 270
poverty 270
oni@@ 270
wards 270
band 270
steu@@ 270
innova@@ 270
ingenie@@ 270
arbeits@@ 270
gaben 270
verlieren 270
ops 269
usually 269
buildings 269
aspe@@ 269
watching 269
mod@@ 269
peri@@ 269
rel@@ 269
lle 269
bele@@ 269
zw@@ 269
tzung 269
überleben 269
erinn@@ 269
medien 269
passierte 269
wissen@@ 269
greifen 269
erzähl@@ 269
approach 268
essentially 268
nation@@ 268
lli@@ 268
on. 268
alized 268
fisch 268
stern 268
außerdem 268
points 267
work@@ 267
collabor@@ 267
camera 267
text 267
ank 267
rich 267
ll 267
tion. 267
continue 267
stars 267
tem 267
trag@@ 267
zogen 267
bleibt 267
zumindest 267
berech@@ 267
versuchte 267
instru@@ 266
j 266
individu@@ 266
creative 266
sym@@ 266
definition 266
dn@@ 266
interessante 266
winzi@@ 266
hör@@ 266
bö@@ 266
umwelt 266
amerikanischen 266
medizin 266
tically 265
series 265
to-@@ 265
island 265
cies 265
cause 265
chines@@ 265
arbeitete 265
zeichnet 265
produzieren 265
langsam 265
nete 265
sprachen 265
demokratie 265
stei@@ 265
spread 264
aging 264
products 264
success 264
intervie@@ 264
objects 264
massive 264
one-@@ 264
berg 264
videos 264
kno@@ 264
us-@@ 264
phy@@ 264
ierte 264
einfluss 264
wussten 264
paul 263
models 263
ium 263
cover 263
electr@@ 263
lied 263
prei@@ 263
beispiele 263
sichti@@ 263
zweiten 263
wün@@ 263
zahl@@ 263
sowohl 263
17 262
hit@@ 262
older 262
west@@ 262
strom 262
roman@@ 262
wu@@ 262
industrie 262
schöne 262
vorher@@ 262
bestimmt 262
slo@@ 261
screen 261
thes@@ 261
audi@@ 261
bit@@ 261
reich 261
studien 261
nachzudenken 261
shot 260
ade 260
wed 260
qui@@ 260
electricity 260
cian 260
nar@@ 260
win 260
path@@ 260
ologen 260
dadurch 260
liste 260
entdecken 260
spezies 260
nachrichten 260
verstanden 260
chtung 260
diejenigen 260
touch 259
conver@@ 259
trees 259
dad 259
ered 259
results 259
1.@@ 259
safe 259
got@@ 259
klein 259
kn@@ 259
haut 259
kä@@ 259
geschehen 259
drücken 259
zeichnen 259
zugang 259
verwen@@ 259
gesi@@ 259
sammeln 259
ght 258
washington 258
somewhere 258
le. 258
serious 258
co2 258
ish 258
song 258
app@@ 258
tiger 258
ffen 258
werk@@ 258
gewalt 258
fein@@ 258
somehow 257
attra@@ 257
clin@@ 257
kei@@ 257
reich@@ 257
öff@@ 257
llt 257
spaß 257
verbessern 257
vertrauen 257
schlagen 257
sar@@ 256
studies 256
quar@@ 256
leaders 256
facebook 256
tree 256
square 256
minds 256
mini@@ 256
babies 256
bühne 256
erwar@@ 256
klasse 256
personen 256
flow 255
spar@@ 255
african 255
tom@@ 255
mom 255
expect 255
faces 255
dur@@ 255
larger 255
higher 255
jun@@ 255
scher 255
menschheit 255
investi@@ 255
zü@@ 255
fällt 255
prinzip 255
methode 255
bun@@ 254
private 254
doctor 254
ists 254
ordin@@ 254
thousand 254
dige 254
führung 254
rop@@ 253
wife 253
reali@@ 253
oli@@ 253
sorts 253
tool 253
trust 253
shown 253
brains 253
tar@@ 253
dent 253
killed 253
schli@@ 253
stä@@ 253
ckte 253
tik 253
pin@@ 252
natur@@ 252
swi@@ 252
ands 252
meaning 252
allowed 252
movie 252
charles 252
kel@@ 252
organisi@@ 252
organisation 252
gewis@@ 252
äumen 252
mathematik 252
wissenschaft@@ 252
above 251
hole 251
architecture 251
vation 251
domin@@ 251
finding 251
struc@@ 251
impossible 251
will@@ 251
terror@@ 251
gegangen 251
brauch 251
erlaubt 251
anwen@@ 251
pflan@@ 251
amerikaner 251
esen 251
rechte 251
geist 250
including 250
tively 250
tv 250
af@@ 250
written 250
sion@@ 250
pers 250
dun@@ 250
grad 250
köni@@ 250
hörte 250
engineering 249
provi@@ 249
sexu@@ 249
fundamental 249
45 249
uns@@ 249
dorf 249
has@@ 249
mach@@ 249
brei@@ 249
ier@@ 249
chti@@ 249
lauf@@ 249
gewicht 249
früher 249
gründe 249
neben@@ 249
versuch 249
hundert 249
zeichen 249
verlassen 249
biology 248
site 248
expensive 248
pieces 248
ima@@ 248
illu@@ 248
therefore 248
ge. 248
frei 248
kun@@ 248
wirklichkeit 248
verständnis 248
größ@@ 248
konzept 248
upon 247
conditions 247
shor@@ 247
cep@@ 247
12@@ 247
reading 247
organ@@ 247
kra@@ 247
satelli@@ 247
traditional 247
unt 247
tele@@ 247
dam@@ 247
omen 247
schen@@ 247
nenne 247
antwor@@ 247
handelt 247
vergangenheit 247
genes 246
dist@@ 246
production 246
terri@@ 246
individuals 246
obje@@ 246
blind 246
transpar@@ 246
red@@ 246
zin@@ 246
politi@@ 246
spielt 246
großartige 246
künst@@ 246
erle@@ 246
richten 246
werk 246
nachricht 246
station 245
tom 245
f-@@ 245
connect 245
supposed 245
income 245
taught 245
press 245
kern 245
abstra@@ 245
typ@@ 245
gos 245
stet 245
frü@@ 245
elte 245
kranken@@ 245
typ 245
erhö@@ 245
» 245
worte 245
wör@@ 245
globalen 245
rou@@ 244
transpor@@ 244
truly 244
crazy 244
israel 244
content 244
stieg 244
sekunden 244
herstellen 244
irgendwo 244
hinaus 244
artikel 244
frieden 244
gewinn@@ 244
suche 244
communities 243
50@@ 243
beauty 243
agen@@ 243
appli@@ 243
central 243
optimi@@ 243
hrt 243
endlich 243
schüler 243
zustand 243
schlag 243
erzeugen 243
bacteria 242
exp@@ 242
goal 242
ama@@ 242
freedom 242
kab@@ 242
tere 242
kämpfen 242
entweder 242
kontin@@ 242
schicken 242
aussieht 242
universität 242
geschwindigkeit 242
papier 242
theater 241
families 241
combin@@ 241
drug 241
favorite 241
famous 241
perspective 241
drugs 241
hot 241
kill 241
fern@@ 241
farbe 241
familien 241
tungs@@ 241
stör@@ 241
« 241
einzel@@ 241
crisis 240
hypo@@ 240
faster 240
me. 240
neben 240
tigkeit 240
sinne 240
warten 240
complicated 239
healthy 239
part@@ 239
dream 239
ods 239
ly@@ 239
mess@@ 239
zz@@ 239
gor@@ 239
hea@@ 239
le-@@ 239
bis@@ 239
ney 239
rat 239
kul@@ 239
behaup@@ 239
itäten 239
zunehmen 239
produkte 239
handeln 239
chirur@@ 239
forsch@@ 239
bodies 238
logi@@ 238
well-@@ 238
visi@@ 238
tting 238
bus 238
ial 238
oc@@ 238
stem 238
toll 238
erin 238
grö@@ 238
niedri@@ 238
läu@@ 238
himself 237
repres@@ 237
pli@@ 237
tent 237
christ@@ 237
role 237
fight 237
ah@@ 237
fund@@ 237
neurons 237
lands 237
violence 237
ca. 237
schwe@@ 237
haft 237
trieben 237
stische 237
materialien 237
arzt 237
verbinden 237
dreht 237
kohlen@@ 237
minister 236
humanity 236
ends 236
ners 236
treatment 236
reser@@ 236
mur@@ 236
ogra@@ 236
geogra@@ 236
welcher 236
folgt 236
monat 236
aufgrund 236
maschinen 236
geheim@@ 236
fotos 236
freiheit 236
original 235
math 235
excited 235
seconds 235
conven@@ 235
chter@@ 235
hilft 235
gefähr@@ 235
kommen@@ 235
alität 235
krea@@ 235
wählen 235
lü@@ 235
riesige 235
faszinier@@ 235
nummer 235
armut 235
17@@ 234
mani@@ 234
response 234
cases 234
exper@@ 234
meant 234
fy 234
throughout 234
apo@@ 234
party 234
details 234
bing 234
heli@@ 234
fur@@ 234
england 234
kauf@@ 234
sinn@@ 234
chern 234
schri@@ 234
werfen 234
interesse 234
lern 234
ries 233
re-@@ 233
prof@@ 233
although 233
insi@@ 233
myster@@ 233
genome 233
35 233
vic@@ 233
compu@@ 233
sam 233
ehe@@ 233
produk@@ 233
bildet 233
steigen 233
öffnen 233
behandlung 233
sprech@@ 233
unmöglich 233
antworten 233
price 232
inclu@@ 232
bunch 232
dge 232
passi@@ 232
date 232
pain 232
philosop@@ 232
range 232
di 232
respon@@ 232
wow 232
mier@@ 232
ben. 232
qualität 232
publi@@ 231
michael 231
successful 231
ran 231
machines 231
rele@@ 231
arb@@ 231
hyper@@ 231
lief 231
tens 231
2000 231
aid 231
mme 231
sohn 231
einfachen 231
zieht 231
umzu@@ 231
geschäft 231
osten 231
frem@@ 231
spek@@ 231
netz 231
effe@@ 231
150 230
kept 230
skills 230
tain 230
radio 230
meeting 230
high@@ 230
informa@@ 230
meer 230
ozean 230
ergebnisse 230
gründen 230
dischen 230
dritte 230
dasselbe 230
außergewöhn@@ 230
entdeckt 230
ebenso 230
verletz@@ 230
funktion@@ 230
neun 230
alive 229
three-@@ 229
skelet@@ 229
zation 229
see@@ 229
phones 229
balance 229
after@@ 229
worse 229
gotten 229
glass 229
rights 229
diver@@ 229
wonder 229
masse 229
mau@@ 229
bestimmte 229
objekt 229
betrachtet 229
früh@@ 229
entschieden 229
haf@@ 229
keln 229
stunde 229
raum@@ 229
clearly 228
fantastic 228
enter 228
ty@@ 228
actual 228
physics 228
fei@@ 228
komplex@@ 228
rä@@ 228
drehen 228
rechts 228
acy 227
ep@@ 227
tivity 227
recognize 227
earlier 227
hydro@@ 227
depres@@ 227
military 227
einstein 227
lege 227
ai@@ 227
ermöglicht 227
freund@@ 227
medizin@@ 227
maß@@ 227
era 226
consi@@ 226
unded 226
grade 226
concept 226
policy 226
ender 226
eigent@@ 226
gerä@@ 226
trägt 226
solchen 226
endes 226
energie@@ 226
samen 226
gü@@ 226
läch@@ 226
himmel 226
ereig@@ 226
samm@@ 226
familiar 225
fair 225
spon@@ 225
uss 225
kollegen 225
legt 225
näher 225
erklärt 225
grei@@ 225
americans 224
c. 224
choose 224
trin@@ 224
mir@@ 224
stes 224
context 224
lie 224
sten@@ 224
zell@@ 224
arbeite 224
nahrung 224
weile 224
meeres@@ 224
reichen 224
entscheiden 224
unde 224
bild@@ 224
heben 224
benutz@@ 224
gesamten 224
verstand 224
photograph@@ 223
greater 223
invented 223
5,000 223
president 223
print 223
plastic 223
sensor@@ 223
beings 223
waiting 223
islam@@ 223
video@@ 223
extra 223
gele@@ 223
gefragt 223
hne 223
bung 223
schafft 223
architektur 223
trag 223
zeigte 223
interak@@ 223
vely 222
smaller 222
slow 222
patterns 222
strange 222
invol@@ 222
waste 222
progress 222
allows 222
fanta@@ 222
gras@@ 222
consider 222
values 222
stro@@ 222
sex@@ 222
freu@@ 222
sen. 222
fluss 222
stisch 222
wü@@ 222
matisch 222
geschäfts@@ 222
leisten 222
armen 222
passt 222
traf 222
connection 221
cycle 221
nur@@ 221
green@@ 221
standard 221
contribu@@ 221
km 221
james 221
que 221
licht@@ 221
chem@@ 221
mals 221
herz 221
nä@@ 221
beziehungen 221
fasst 221
hinzu@@ 221
flüs@@ 221
menschen@@ 221
weight 220
conser@@ 220
solutions 220
tests 220
argument 220
pol@@ 220
ph 220
film@@ 220
signal 220
listening 220
treat 220
bieten 220
chung 220
stü@@ 220
ät 220
lösungen 220
gesetz 220
gehirn@@ 220
projekte 220
kämp@@ 220
ressourcen 220
fällen 220
außerhalb 220
costs 219
ited 219
driving 219
rob@@ 219
divi@@ 219
600 219
dan 219
pen 219
kampf 219
haltung 219
kaum 219
beginn 219
gelegenheit 219
provide 218
performance 218
mb 218
record 218
related 218
dness 218
ack 218
loss 218
some@@ 218
draw 218
magic 218
99 218
george 218
malaria 218
heim@@ 218
bakterien 218
leistung 218
veran@@ 218
zunächst 218
naja 218
anywhere 217
phil@@ 217
clean 217
religi@@ 217
kilometer 217
robots 217
train 217
sustainable 217
heu@@ 217
sat@@ 217
plasti@@ 217
bürger@@ 217
spieler 217
seines 217
sches 217
kunden 217
verg@@ 217
trifft 217
eis 217
weren 216
etc 216
auff@@ 216
effective 216
moment@@ 216
forest 216
graph@@ 216
stun@@ 216
ever@@ 216
stein 216
hoff@@ 216
zy@@ 216
bau 216
erzählte 216
raten 216
worten 216
letz@@ 216
feed 215
protect 215
travel 215
two-@@ 215
however 215
thanks 215
wers 215
lies 215
aware 215
tumor 215
thomas 215
explor@@ 215
surgery 215
intelligence 215
decisions 215
trade 215
ler@@ 215
schwan@@ 215
leider 215
ür@@ 215
hände 215
befindet 215
dein 215
wirtschafts@@ 215
bezug 215
itä@@ 215
pass 214
resist@@ 214
emotional 214
walked 214
ambi@@ 214
forming 214
dog 214
critical 214
scan@@ 214
teaching 214
conference 214
jan@@ 214
se. 214
au 214
tig@@ 214
flying 214
whose 214
okay. 214
belo@@ 214
sich@@ 214
straßen 214
schlechte 214
glich 214
dangerous 213
ory 213
remarkable 213
scre@@ 213
depression 213
conc@@ 213
ero@@ 213
sharing 213
nap@@ 213
pic@@ 213
fuel 213
desig@@ 213
0er 213
untersuchen 213
äre 213
fähig 213
herzustellen 213
nicht-@@ 213
auswirkungen 213
landes 213
wood 212
&apos;@@ 212
stick 212
ements 212
current 212
fs 212
conversation 212
september 212
politics 212
univer@@ 212
circu@@ 212
becoming 212
2008 212
sele@@ 212
rule 212
sel 212
hr 212
sand@@ 212
emotion@@ 212
geln 212
fühlt 212
nicht. 212
voraus@@ 212
zeuge 212
schönheit 212
einzigen 212
lations 211
artist 211
mobile 211
direction 211
diversity 211
arts 211
boys 211
som@@ 211
wege 211
del 211
spitze 211
uhr 211
unglaubliche 211
heit@@ 211
aktu@@ 211
fläche 211
foundation 210
docum@@ 210
none 210
cas@@ 210
whe@@ 210
wagen 210
ek 210
organis@@ 210
suff@@ 210
gic 210
bla@@ 210
recht@@ 210
regel@@ 210
moral@@ 210
stau@@ 210
bisher 210
erstens 210
letztes 210
herausfinden 210
glaub@@ 210
auen 210
chts@@ 210
eigenschaften 210
biologie 210
prototyp@@ 209
bits 209
soli@@ 209
lag 209
slide 209
inge 209
ing-@@ 209
sum 209
exist 209
sla@@ 209
motor 209
dar 209
ous@@ 209
anda 209
entation 209
gent@@ 209
genetic 209
frank@@ 209
frie@@ 209
abend 209
bewe@@ 209
ttern 209
raus 209
stände 209
dlichen 209
extrem 209
thetic 208
geni@@ 208
pull 208
block 208
robo@@ 208
mile 208
ash 208
ember 208
ets 208
understood 208
worl@@ 208
cians 208
mr. 208
protein 208
genom@@ 208
freude 208
geschaffen 208
erneu@@ 208
brü@@ 208
dien@@ 208
finanzi@@ 208
deswegen 208
lernte 208
zeitpunkt 208
organisationen 208
flugzeug 208
lower 207
hing 207
ghts 207
you. 207
irs 207
environmental 207
passion 207
ads 207
greatest 207
reach@@ 207
profi@@ 207
nigeria 207
rund 207
dün@@ 207
hunderte 207
leidenschaft 207
zie@@ 207
siert 207
chs@@ 207
bahn 207
alisi@@ 207
veröffent@@ 207
immediately 206
track 206
increase 206
0,000 206
main@@ 206
specific 206
scientist 206
encoura@@ 206
scri@@ 206
occu@@ 206
poten@@ 206
offi@@ 206
yer 206
keiner 206
geschlossen 206
äng@@ 206
wichtigste 206
zieh@@ 206
glei@@ 206
getroffen 206
konferenz 206
legs 205
tradition 205
experiments 205
tech 205
institu@@ 205
sac@@ 205
police 205
subject 205
thro@@ 205
proble@@ 205
schil@@ 205
va 205
agi@@ 205
ehrlich 205
erinnere 205
reaktion 205
entdeck@@ 205
währ@@ 205
enormous 204
decade 204
chemical 204
floor 204
speaking 204
services 204
jer@@ 204
conclu@@ 204
stone 204
vac@@ 204
networks 204
ann 204
blas@@ 204
iges 204
ktor 204
mitten 204
vollen 204
erfahren 204
inspiri@@ 204
trei@@ 204
führer 204
schönen 204
fertig 204
gehirns 204
disappe@@ 203
co 203
tle 203
commit@@ 203
urban 203
pris@@ 203
atlan@@ 203
cold 203
chin@@ 203
auge 203
schluss 203
säu@@ 203
leiden 203
geräte 203
statt@@ 203
werkzeuge 203
z.b. 203
markets 202
produced 202
sequence 202
assu@@ 202
tac@@ 202
enter@@ 202
photograph 202
ge-@@ 202
function 202
raise 202
band@@ 202
shared 202
ham 202
practice 202
ue 202
tes@@ 202
ok. 202
verkaufen 202
stattdessen 202
kamera 202
krankenhaus 202
schutz 202
bedingungen 202
luft@@ 202
vielfalt 202
unterschiedliche 202
mehrere 202
lasst 202
ky 201
status 201
forget 201
ells 201
complete 201
fit 201
adop@@ 201
alle@@ 201
materi@@ 201
creativity 201
recogni@@ 201
tz 201
atur@@ 201
retten 201
aufgaben 201
erfü@@ 201
sodass 201
spreche 201
vorzu@@ 201
keits@@ 201
various 200
studio 200
in-@@ 200
sle@@ 200
following 200
ong 200
held 200
n-@@ 200
ick 200
temperature 200
ring 200
pon@@ 200
pel 200
comm@@ 200
nes 200
fen@@ 200
sung 200
steckt 200
veränderungen 200
fuhr 200
erwarten 200
klima@@ 200
verein@@ 200
rechten 200
gefä@@ 200
typen 200
beschrei@@ 200
unfortunately 199
matically 199
near 199
anymore 199
moder@@ 199
rock 199
television 199
bat 199
darwin 199
played 199
forces 199
hinder@@ 199
gesellschaften 199
nahe 199
grundle@@ 199
ganzes 199
entfern@@ 199
globale 199
mögliche 199
krise 199
sische 199
westen 199
strukturen 199
nel 198
summer 198
surro@@ 198
plac@@ 198
thi@@ 198
hero@@ 198
mr@@ 198
lights 198
agree 198
pher@@ 198
inspired 198
cir@@ 198
philosoph@@ 198
weib@@ 198
weite 198
sind. 198
ebenfalls 198
kün@@ 198
netzwerk 198
bac@@ 197
discover 197
fundament@@ 197
financial 197
useful 197
van 197
nasa 197
classi@@ 197
conflict 197
prü@@ 197
brenn@@ 197
solar@@ 197
verbindungen 197
männ@@ 197
pfer@@ 197
demokra@@ 197
öffentlichen 197
mente 197
elektro@@ 197
nehme 197
chtes 197
ruf 197
verwand@@ 197
geschi@@ 197
wahl@@ 197
medikamente 197
bewer@@ 197
steh@@ 197
bringing 196
survive 196
wikipedia 196
essed 196
final 196
levels 196
wee@@ 196
possibly 196
doctors 196
experim@@ 196
rever@@ 196
forth 196
path 196
chair 196
geru@@ 196
anz 196
unden 196
unterneh@@ 196
erfolgreich 196
bemerkens@@ 196
bäume 196
fern 196
regierungen 196
mp 195
ana 195
ately 195
evolved 195
technologi@@ 195
15@@ 195
goo@@ 195
recent 195
0 195
birds 195
restaurant 195
sat 195
element 195
deu@@ 195
sse 195
elles 195
schützen 195
produktion 195
gehe 195
kraft@@ 195
jene 195
höch@@ 195
angefangen 195
rü@@ 195
types 194
fabri@@ 194
profit 194
vin@@ 194
unique 194
actions 194
plus 194
helped 194
loved 194
mix@@ 194
amp 194
alternative 194
phase 194
indian 194
fran@@ 194
teams 194
societies 194
negative 194
finan@@ 194
glas@@ 194
tsch@@ 194
rufen 194
erwä@@ 194
unterschiede 194
struk@@ 194
wirken 194
maßen 194
physik 194
directly 193
k-@@ 193
institutions 193
event 193
shel@@ 193
bren@@ 193
mostly 193
pair 193
search 193
union 193
effects 193
john@@ 193
chs 193
gere@@ 193
guter 193
wechsel@@ 193
wichtigsten 193
schlä@@ 193
ef@@ 192
evol@@ 192
gender 192
75 192
destro@@ 192
apple 192
consciousness 192
steve 192
hig@@ 192
gend@@ 192
ozean@@ 192
jemandem 192
schritte 192
erstaun@@ 192
heutigen 192
setz@@ 192
kostet 192
konsu@@ 192
einzigarti@@ 192
tausend 192
schätzen 192
karten 192
aro@@ 191
rock@@ 191
jac@@ 191
instrument 191
ahead 191
alter@@ 191
ple 191
funny 191
happ@@ 191
jahrhunderts 191
verantwortung 191
wohin 191
geführt 191
dische 191
zustellen 191
sign 190
pack@@ 190
interest@@ 190
exten@@ 190
sis 190
moon 190
tran@@ 190
robert 190
kern@@ 190
alization 190
phi@@ 190
öko@@ 190
erfunden 190
büro 190
konzentrieren 190
ärzte 190
selts@@ 190
fragt 190
eigenes 190
nieder@@ 190
erleb@@ 190
industrial 189
california 189
gam@@ 189
institute 189
uring 189
intui@@ 189
heat 189
budget 189
extreme 189
hes 189
below 189
detail 189
note 189
hum@@ 189
vot@@ 189
workers 189
carto@@ 189
hir@@ 189
mark@@ 189
elli@@ 189
echte 189
größeren 189
digung 189
kosten@@ 189
verk@@ 189
schlu@@ 189
graph 188
privi@@ 188
laptop 188
ological 188
by@@ 188
ards 188
ted-@@ 188
men. 188
fühl@@ 188
modelle 188
tief 188
entwicklungs@@ 188
greif@@ 188
entlich 188
miert 188
nü@@ 188
hängt 188
zweitens 188
fuß@@ 188
öffnet 188
beu@@ 188
afrikan@@ 188
imag@@ 187
capital 187
bank@@ 187
harvard 187
mov@@ 187
agre@@ 187
onic 187
ams 187
ba 187
hot@@ 187
zur@@ 187
holt 187
regel 187
konzentri@@ 187
hinein 187
unterstützen 187
förder@@ 187
englisch 187
herzen 187
tür 187
ruhi@@ 187
wenige 187
frieden@@ 187
jam@@ 186
gon@@ 186
fortun@@ 186
op 186
francisco 186
ital@@ 186
break@@ 186
obvious 186
demon@@ 186
daughter 186
bought 186
spec@@ 186
focused 186
ep 186
gie 186
bir@@ 186
appar@@ 186
anima@@ 186
mand@@ 186
toll@@ 186
trieb 186
entscheiden@@ 186
gewä@@ 186
senden 186
ahnung 186
blau@@ 186
sischen 186
kamer@@ 186
farben 186
career 185
sleep 185
challenges 185
birth 185
discus@@ 185
biological 185
explore 185
term 185
trick 185
governments 185
stir@@ 185
magne@@ 185
bitten 185
größere 185
waffen 185
gefühle 185
ette 184
ping 184
valley 184
ased 184
chen. 184
connec@@ 184
wid@@ 184
2007 184
twitter 184
schwi@@ 184
ater 184
autor@@ 184
stecken 184
großartig 184
vermei@@ 184
erlauben 184
berühm@@ 184
erfahrungen 184
entschied 184
digt 184
besser@@ 184
erzeugt 184
gebe 184
behandeln 184
verrück@@ 184
eating 183
terrible 183
predic@@ 183
enga@@ 183
willing 183
cell@@ 183
ple@@ 183
decide 183
capacity 183
ancient 183
mili@@ 183
artists 183
att@@ 183
ii 183
sorry 183
dep@@ 183
modi@@ 183
pati@@ 183
boot 183
ließen 183
ände 183
geschah 183
brauchte 183
frühen 183
geschafft 183
fängt 183
stischen 183
fühlte 183
blut@@ 183
reak@@ 183
verrückt 183
häuser 183
seien 183
proto@@ 182
winter 182
ologists 182
inspiration 182
turning 182
farm 182
unbe@@ 182
popular 182
dest@@ 182
tam@@ 182
intelligent 182
wild 182
causes 182
designers 182
ech@@ 182
neur@@ 182
universi@@ 182
inger 182
fes@@ 182
brot 182
freunden 182
sigkeit 182
zwan@@ 182
barkeit 182
fenster 182
träge 182
alisierung 182
hunder@@ 182
task 181
dimensional 181
subje@@ 181
shir@@ 181
communication 181
instance 181
gran@@ 181
yers 181
drin@@ 181
shed 181
cros@@ 181
const@@ 181
ologi@@ 181
paid 181
val 181
expected 181
mond 181
islam 181
hed 181
16@@ 181
decision 181
echt 181
lieb@@ 181
verbringen 181
erleben 181
leid 181
lich. 181
schte 181
unterstü@@ 181
grafi@@ 181
weiss 181
augen@@ 181
elektron@@ 181
wenden 181
neuronen 181
carry 180
anti-@@ 180
character 180
push 180
spending 180
speci@@ 180
that. 180
efficient 180
closer 180
ine@@ 180
prob@@ 180
brie@@ 180
laws 180
meters 180
tate 180
trial 180
hall@@ 180
pressure 180
stie@@ 180
rieben 180
prakti@@ 180
entscheidung 180
vorstell@@ 180
kommunikation 180
einkommen 180
gestal@@ 180
nungen 180
loch 180
accu@@ 179
promis@@ 179
sphere 179
enting 179
race 179
rain 179
infrastructure 179
dying 179
10,000 179
law@@ 179
pa 179
demonstra@@ 179
ji@@ 179
trie@@ 179
erstes 179
verfügung 179
beeinflusst 179
wunsch 179
blä@@ 179
folgendes 179
sicherlich 179
complexity 178
dent@@ 178
link 178
flexi@@ 178
drop 178
twice 178
acade@@ 178
slightly 178
comp@@ 178
purpose 178
low-@@ 178
u.@@ 178
stal@@ 178
instal@@ 178
195@@ 178
diseases 178
regu@@ 178
rema@@ 178
feu@@ 178
üs@@ 178
oten 178
staat 178
losen 178
wirtschaft@@ 178
nissen 178
genutzt 178
amerikanische 178
schö@@ 178
verbesser@@ 178
tritt 178
dreh@@ 178
achten 178
lauf 178
gese@@ 178
daß 178
molecules 177
prize 177
bly 177
river 177
adap@@ 177
quote 177
address 177
devices 177
fres@@ 177
attac@@ 177
gui@@ 177
astero@@ 177
stock 177
puzz@@ 177
ami 177
memor@@ 177
ade@@ 177
schutz@@ 177
wörter 177
modernen 177
können. 177
bildungs@@ 177
nächstes 177
zehn@@ 177
einhalb 177
lets 176
surprising 176
ours 176
straight 176
sal 176
worry 176
vering 176
umin@@ 176
tis@@ 176
secret 176
youtube 176
gem 176
charge 176
inse@@ 176
hart 176
funk@@ 176
desto 176
küste 176
tolle 176
wach@@ 176
haben. 176
innen@@ 176
politischen 176
nord@@ 176
begeg@@ 176
gebäu@@ 176
fäl@@ 176
kreativität 176
persön@@ 176
habt 176
leg 175
check 175
sa 175
citizens 175
mountain 175
hur@@ 175
descri@@ 175
collap@@ 175
gold 175
manipu@@ 175
ency 175
chri@@ 175
decades 175
schaf@@ 175
ein. 175
integri@@ 175
engli@@ 175
höhe 175
produziert 175
schafts@@ 175
glaubt 175
besor@@ 175
nütz@@ 175
ökonom@@ 175
fügen 175
vorbei 175
impf@@ 175
1,000 174
acting 174
organi@@ 174
educ@@ 174
bert 174
flu 174
defin@@ 174
stron@@ 174
quad@@ 174
jon@@ 174
fort 174
ries@@ 174
gewebe 174
ität 174
schön@@ 174
existiert 174
ungspro@@ 174
beteili@@ 174
politische 174
schrift 174
-jähri@@ 174
zug 174
eding 173
ance@@ 173
significant 173
phili@@ 173
cham@@ 173
process@@ 173
ority 173
magazine 173
degrees 173
published 173
festi@@ 173
ate@@ 173
zone 173
motiv@@ 173
ware 173
pakistan 173
tei@@ 173
werden. 173
stücke 173
runter 173
zusammenhang 173
sekunde 173
begonnen 173
schien 173
tochter 173
somit 173
familien@@ 173
nähe 173
bieren 173
zerstör@@ 173
sucht 173
unsicht@@ 173
ables 172
calls 172
tremendous 172
quick 172
corpo@@ 172
smar@@ 172
lap@@ 172
minist@@ 172
dence 172
nat@@ 172
chr@@ 172
immer@@ 172
year-old 172
profession@@ 172
achie@@ 172
was@@ 172
coffee 172
prot@@ 172
zog 172
komplexität 172
linken 172
orien 172
ecke 172
deutlich 172
wirst 172
dorthin 172
zierte 172
nicht@@ 172
fuß 172
einfach@@ 172
däch@@ 172
hearing 171
laun@@ 171
counter@@ 171
rooms 171
memory 171
suppor@@ 171
supply 171
wr@@ 171
bridge 171
atmosphere 171
archi@@ 171
predi@@ 171
crimin@@ 171
miss@@ 171
100@@ 171
ungsk@@ 171
komm@@ 171
fühle 171
wuchs 171
freien 171
besonder@@ 171
treib@@ 171
schwester 171
teren 171
botschaft 171
weiterhin 171
broken 170
passed 170
ples 170
leads 170
conne@@ 170
tail 170
twi@@ 170
rational 170
creates 170
dea@@ 170
assem@@ 170
worst 170
apart 170
cortex 170
answers 170
medium 170
budd@@ 170
ening 170
tar 170
brilliant 170
interven@@ 170
gst 170
wom@@ 170
dimension@@ 170
ernst 170
stag 170
wissenschaftliche 170
überzeu@@ 170
tür@@ 170
infrastruktur 170
investieren 170
erinnert 170
ausdruck 170
affen 170
sites 169
gradu@@ 169
cool@@ 169
invest@@ 169
electric 169
pus@@ 169
nations 169
gab@@ 169
edge 169
feedback 169
structures 169
2010 169
bie@@ 169
wen 169
dire@@ 169
erstaunlich 169
ansatz 169
feuer 169
hnt 169
fernsehen 169
kreu@@ 169
riesigen 169
notion 168
direc@@ 168
justice 168
inno@@ 168
communicate 168
garten 168
fying 168
travel@@ 168
repe@@ 168
trouble 168
boston 168
oxygen 168
stad@@ 168
trotz 168
verur@@ 168
irgendwann 168
tiver 168
durchschnitt@@ 168
gehalten 168
ausbildung 168
verfolgen 168
allerdings 168
erfin@@ 168
epide@@ 167
fix 167
ear 167
differences 167
improve 167
deser@@ 167
accep@@ 167
noticed 167
vege@@ 167
sely 167
relevant 167
-year-old 167
portra@@ 167
tissue 167
esses 167
dopp@@ 167
haufen 167
fleisch 167
stolz 167
natürliche 167
problemen 167
weiten 167
baum 167
bildern 167
arme 167
religiö@@ 167
dennoch 167
bruch 167
effekt 167
begriff 167
bestehen 167
kontrollieren 167
journ@@ 166
toler@@ 166
willi@@ 166
seemed 166
emer@@ 166
de-@@ 166
brown 166
mming 166
designs 166
tory 166
stige 166
partner@@ 166
insu@@ 166
roten 166
gelöst 166
männern 166
baut 166
verursacht 166
bares 166
ermöglichen 166
wiederum 166
linien 166
quelle 166
nerven@@ 166
universums 166
materie 166
risiko 166
massen@@ 166
tivität 166
this. 165
organisms 165
limit@@ 165
meas@@ 165
inner 165
farmers 165
bub@@ 165
astronom@@ 165
paradig@@ 165
british 165
colleagues 165
flies 165
2005 165
bird 165
interpre@@ 165
re. 165
hotel 165
lun@@ 165
wald 165
gemeinde 165
reisen 165
setzung 165
errei@@ 165
offen 165
vorberei@@ 165
erwartet 165
fotogra@@ 165
erungen 165
einfacher 165
acht@@ 165
werkzeug 165
sterne 165
gesetze 165
plo@@ 164
possibility 164
feels 164
responsibility 164
communic@@ 164
camer@@ 164
studying 164
stors 164
any@@ 164
helping 164
tially 164
architec@@ 164
train@@ 164
ford 164
p-@@ 164
anten@@ 164
aut 164
lok@@ 164
selber 164
letztendlich 164
schick@@ 164
gelegt 164
untersu@@ 164
dagegen 164
benötigen 164
schaft@@ 164
behand@@ 164
hoffentlich 164
entwickelten 164
funktion 164
filme 164
töten 164
stuhl 164
bay 163
nearly 163
rhyth@@ 163
net@@ 163
consum@@ 163
religious 163
cious 163
ay 163
ought 163
republi@@ 163
giant 163
achieve 163
pose 163
14@@ 163
ins@@ 163
marketing 163
imagination 163
cyber@@ 163
bot 163
eis@@ 163
wächst 163
grenze 163
sozusagen 163
äuß@@ 163
großarti@@ 163
veränder@@ 163
aufre@@ 163
kenne 163
woll@@ 163
benötigt 163
erfol@@ 163
ering 162
shift 162
oth 162
accoun@@ 162
corner 162
stands 162
amaz@@ 162
necessarily 162
flight 162
activ@@ 162
addi@@ 162
opti@@ 162
window 162
organizations 162
blog 162
quali@@ 162
particles 162
scot@@ 162
.com 162
planets 162
fellow 162
haiti 162
real@@ 162
bo 162
open-@@ 162
hall 162
mol@@ 162
las 162
verkauft 162
wahrscheinlichkeit 162
cht. 162
möglicherweise 162
aufnahme 162
drü@@ 162
wärts 162
met@@ 161
thy 161
das@@ 161
resul@@ 161
centi@@ 161
defen@@ 161
condition 161
asia 161
phenomenon 161
programs 161
are@@ 161
pump@@ 161
core 161
tradi@@ 161
easily 161
plu@@ 161
painting 161
deut@@ 161
rand@@ 161
ele 161
regen@@ 161
entstehen 161
ück@@ 161
aktivität 161
gebiete 161
sozial@@ 161
kriegen 161
kehr@@ 161
shop 160
life@@ 160
rain@@ 160
landscape 160
brand 160
ir 160
knowing 160
figured 160
wide 160
reduce 160
stream 160
consu@@ 160
pounds 160
rab@@ 160
post@@ 160
symbo@@ 160
blog@@ 160
civil 160
wind@@ 160
schwei@@ 160
iel 160
choices 160
aufgenommen 160
standen 160
saß 160
klang 160
stück@@ 160
nahrungs@@ 160
versorgung 160
zurückzu@@ 160
ingt 160
dauert 160
kreis 160
reagieren 160
objekte 160
entlang 160
gestalten 160
einzi@@ 160
highly 159
return 159
management 159
iraq 159
ar-@@ 159
thir@@ 159
yn@@ 159
yle 159
spor@@ 159
ular 159
throw 159
tag@@ 159
cation 159
bone 159
h. 159
hair 159
onie 159
zun@@ 159
rad 159
kontrolli@@ 159
aktiv@@ 159
behalten 159
beschle@@ 159
städten 159
zeu@@ 159
fortschritt 159
finanz@@ 159
einsatz 159
klingt 159
davor 159
boat 158
discovery 158
nutri@@ 158
fau@@ 158
report 158
legal 158
1. 158
chicago 158
neighbor@@ 158
attemp@@ 158
moments 158
resol@@ 158
xes 158
sist@@ 158
streets 158
allo@@ 158
pollen 158
motion 158
strategi@@ 158
orche@@ 158
technolog@@ 158
obama 158
lot@@ 158
laut 158
atur 158
tsam 158
fotografi@@ 158
dieselbe 158
gewi@@ 158
sparen 158
forscher 158
süd@@ 158
jahres 158
erforschen 158
todes@@ 158
vergleich 158
coast 157
puts 157
21 157
hunger 157
lucky 157
relationships 157
reas@@ 157
rt 157
dents 157
engine 157
scen@@ 157
versus 157
golf 157
bia 157
g-@@ 157
ski@@ 157
via 157
defini@@ 157
dop@@ 157
extre@@ 157
plä@@ 157
vollständig 157
gewonnen 157
0.000 157
bürger 157
bü@@ 157
lebte 157
schlag@@ 157
worüber 157
perspektive 157
gestern 157
selb@@ 157
finished 156
ish@@ 156
wonder@@ 156
anth@@ 156
teen@@ 156
benefit 156
intensi@@ 156
alien 156
opportunities 156
stopped 156
spac@@ 156
iled 156
interact 156
despite 156
origin@@ 156
fossi@@ 156
necessary 156
exponenti@@ 156
cel@@ 156
hou@@ 156
port 156
fication 156
ti 156
cker@@ 156
geno@@ 156
verdi@@ 156
blei@@ 156
moleküle 156
lautet 156
sommer 156
kehren 156
hirn@@ 156
kür@@ 156
sein. 156
jüng@@ 156
grenz@@ 156
ernsthaf@@ 156
beschäftigt 156
täg@@ 156
spä@@ 156
ultimately 155
yl@@ 155
inti@@ 155
ior 155
brings 155
foreign 155
organic 155
custom@@ 155
gress 155
lying 155
motor@@ 155
arian 155
tee 155
obs@@ 155
que@@ 155
oll@@ 155
noise 155
20. 155
rö@@ 155
gelan@@ 155
kommuni@@ 155
soldaten 155
zukünf@@ 155
wirkung 155
herausgefunden 155
gedanke 155
gelassen 155
temperatur 155
buchstäblich 155
fähi@@ 155
kräfte 155
respect 154
expec@@ 154
color@@ 154
gli@@ 154
bush 154
instin@@ 154
forever 154
engage 154
paris 154
itali@@ 154
ily 154
bled 154
russi@@ 154
ites 154
missing 154
cial 154
vat@@ 154
symptom@@ 154
well@@ 154
ultra@@ 154
mach 154
nah@@ 154
organismen 154
beine 154
verschie@@ 154
vollkommen 154
zusammenarbeit 154
kurzem 154
zuhause 154
setzte 154
experten 154
heili@@ 154
großbritannien 154
beweg@@ 154
atmosphäre 154
fach@@ 154
klimawandel 154
kombin@@ 154
stress 153
00 153
reve@@ 153
leading 153
join 153
members 153
colum@@ 153
hell 153
cise 153
stru@@ 153
surge@@ 153
emergen@@ 153
isra@@ 153
passionate 153
ela 153
ury 153
enz@@ 153
wesentlichen 153
äf@@ 153
weiteren 153
kontro@@ 153
ändert 153
teste 153
zus@@ 153
intelligenz 153
methoden 153
klar@@ 153
mom@@ 152
contro@@ 152
tial 152
transformation 152
monit@@ 152
virg@@ 152
calcul@@ 152
cide 152
dom 152
gical 152
sculp@@ 152
kid@@ 152
yellow 152
interface 152
cent@@ 152
fairly 152
2.@@ 152
benefits 152
ili@@ 152
hai 152
dh 152
hn 152
chaos 152
u-@@ 152
buch@@ 152
themen 152
betr@@ 152
kauft 152
bewegungen 152
meistens 152
unterstützung 152
klin@@ 152
alisieren 152
schalten 152
jähri@@ 152
sogenan@@ 152
scheinen 152
teilchen 152
darf 152
räume 152
gilt 152
sitzt 152
rup@@ 151
fix@@ 151
electro@@ 151
expla@@ 151
helps 151
jung@@ 151
brief 151
antly 151
tures 151
elements 151
cloud 151
rot 151
virtual 151
emotions 151
stati@@ 151
wisdom 151
theore@@ 151
fashion 151
gur@@ 151
absolute 151
arm@@ 151
hinein@@ 151
krank@@ 151
jungs 151
wunderbare 151
wahre 151
einander@@ 151
lungen 151
besseren 151
steuern 151
lichsten 151
landschaft 151
erstellen 151
konfli@@ 151
heads 150
covered 150
moves 150
prison 150
titude 150
mathematics 150
expres@@ 150
19 150
lesson 150
fields 150
card 150
rus 150
arms 150
visit 150
sahar@@ 150
french 150
contra@@ 150
og@@ 150
polio 150
urs 150
ök@@ 150
gelangen 150
karriere 150
meilen 150
unbedingt 150
kommunizieren 150
fiziert 150
hohen 150
trauri@@ 150
bezahlen 150
aktivi@@ 150
entwerfen 150
orienti@@ 150
vö@@ 150
tauchen 150
fragten 150
schlie@@ 150
krebs@@ 150
vermutlich 150
ologist 149
base 149
load 149
2009 149
effort 149
saving 149
appreci@@ 149
introdu@@ 149
emplo@@ 149
suffering 149
al. 149
shares 149
degree 149
differently 149
o. 149
afford 149
gy@@ 149
ya 149
apply 149
itable 149
comfortable 149
supp@@ 149
angel@@ 149
dies@@ 149
engineers 149
doll@@ 149
extin@@ 149
nel@@ 149
agriculture 149
hard@@ 149
afraid 149
walls 149
attack 149
diplo@@ 149
nah 149
stein@@ 149
figu@@ 149
teu@@ 149
hielten 149
entwickelte 149
genau@@ 149
kontakt 149
präsident 149
phänomen 149
verdienen 149
erklär@@ 149
häl@@ 149
stimm@@ 149
vermu@@ 149
welchen 149
erkrank@@ 149
reicht 149
hauptsächlich 149
berü@@ 149
spring 148
female 148
mothers 148
concent@@ 148
filled 148
ath 148
responsible 148
billions 148
bling 148
recei@@ 148
leb@@ 148
typical 148
slowly 148
engineer 148
shar@@ 148
events 148
tis 148
rief 148
conscious 148
stopp@@ 148
tie@@ 148
priv@@ 148
gras 148
olymp@@ 148
ala 148
peter 148
meister 148
stens 148
dritten 148
steigt 148
derzeit 148
geschen@@ 148
arbeiter 148
zufällig 148
laufe 148
gefängnis 148
kümmern 148
stufe 148
landwirtschaft 148
milliarde 148
ziele 148
mischen 148
charak@@ 148
geschä@@ 148
schwarze 148
umge@@ 148
gif@@ 147
brother 147
yor@@ 147
fighting 147
raised 147
creatures 147
mouse 147
fing@@ 147
organ 147
ution 147
chromo@@ 147
gren@@ 147
sequen@@ 147
norden 147
kenn@@ 147
irgendetwas 147
ktionen 147
wandel 147
mitg@@ 147
großteil 147
durchgeführt 147
titel 147
behandelt 147
separ@@ 146
bility 146
capable 146
broad@@ 146
compar@@ 146
bees 146
duc@@ 146
pharma@@ 146
ens@@ 146
roll 146
ves@@ 146
gentle@@ 146
gift 146
2,@@ 146
vel 146
bread 146
simul@@ 146
ager 146
3d 146
traffic 146
tim 146
weiteres 146
mär@@ 146
viren 146
besitzen 146
beschreiben 146
bekannten 146
gegensei@@ 146
geschle@@ 146
schicht 146
tierte 146
hohe 146
überzeugt 146
starb 146
beeinflussen 146
fung 146
asien 146
gier@@ 146
außen@@ 146
gesetz@@ 146
gun 145
phen 145
constru@@ 145
lou@@ 145
competition 145
sector 145
begins 145
fold 145
secon@@ 145
easier 145
hopefully 145
cis@@ 145
vast 145
adam 145
uganda 145
and-@@ 145
thri@@ 145
sky@@ 145
simpli@@ 145
sity 145
indu@@ 145
calcu@@ 145
crime 145
differ@@ 145
cle 145
hear@@ 145
beginn@@ 145
ollywood 145
afri@@ 145
nega@@ 145
2-@@ 145
intelligen@@ 145
mengen 145
raus@@ 145
hergestellt 145
schnell@@ 145
graben 145
lass 145
zierten 145
stür@@ 145
woher 145
pyrami@@ 144
texas 144
tradition@@ 144
investment 144
distance 144
experiences 144
tain@@ 144
cheap 144
facili@@ 144
impres@@ 144
embra@@ 144
identity 144
influence 144
compli@@ 144
gate 144
photo 144
adults 144
holding 144
phic 144
dio@@ 144
ests 144
caught 144
vern@@ 144
diam@@ 144
astro@@ 144
profound 144
poly@@ 144
ison 144
ried 144
warm 144
wissenschaftlichen 144
rein 144
neuer 144
morgens 144
gedi@@ 144
überzeugen 144
experimente 144
unterschiedlichen 144
aktiv 144
herunter@@ 144
alisiert 144
nochmal 144
konstru@@ 144
fill 143
respond 143
quie@@ 143
atz 143
ace 143
promise 143
leaving 143
2,000 143
compe@@ 143
autis@@ 143
wit@@ 143
separate 143
ome 143
speak@@ 143
institution 143
vir@@ 143
yn 143
quanti@@ 143
measu@@ 143
experiment@@ 143
concep@@ 143
tem@@ 143
th-@@ 143
rid 143
uner@@ 143
wachsen@@ 143
lieber 143
endet 143
wohner 143
wirtschaftlichen 143
gehei@@ 143
stig 143
kurze 143
entwickl@@ 143
vertei@@ 143
unabhängi@@ 143
erster 143
gewissen 143
dritt@@ 143
ota 142
meat 142
breast 142
spirit 142
spli@@ 142
ki 142
toi@@ 142
matters 142
lady 142
small@@ 142
galaxy 142
aci@@ 142
kee@@ 142
sick 142
tot@@ 142
hat. 142
vement 142
sy 142
powered 142
graphi@@ 142
statistics 142
gressi@@ 142
ema@@ 142
chip 142
zig 142
verkauf@@ 142
zeugen 142
büro@@ 142
ständen 142
täglich 142
perfekt 142
dahin 142
rahmen 142
drittel 142
erkannte 142
brachten 142
fischen 142
machen. 142
elemente 142
elten 142
noten 142
außer@@ 142
weder 142
basiert 142
pingu@@ 142
absor@@ 141
shouldn 141
offer 141
ome@@ 141
sold 141
func@@ 141
juli@@ 141
home@@ 141
cont@@ 141
stances 141
describe 141
tured 141
challen@@ 141
motivation 141
trend 141
grand 141
right. 141
pig@@ 141
post 141
mouth 141
count 141
ritual 141
church 141
circle 141
ite 141
determin@@ 141
importantly 141
trained 141
jum@@ 141
symbol 141
occur@@ 141
ght@@ 141
colors 141
normal@@ 141
korea 141
alize 141
iphone 141
nom@@ 141
ai 141
kt@@ 141
chemi@@ 141
suit 141
atem@@ 141
anderem 141
mütter 141
sowie 141
gerü@@ 141
neten 141
lernt 141
gelesen 141
werten 141
normale 141
falsche 141
entsteht 141
atten@@ 140
studied 140
dreams 140
kers 140
mexico 140
27 140
economics 140
tricks 140
otherwise 140
fascinating 140
telescop@@ 140
insects 140
wear 140
tations 140
mates 140
fif@@ 140
sir 140
22 140
invest 140
kolle@@ 140
zin 140
veröffentlicht 140
stö@@ 140
brust@@ 140
fordert 140
präsentiert 140
handel 140
klassen@@ 140
theit 140
vergleichen 140
sichten 140
gelei@@ 140
insekten 140
zuhören 140
allge@@ 140
blick@@ 140
flächen 140
arc@@ 139
wave 139
spir@@ 139
names 139
spra@@ 139
disco@@ 139
independent 139
sudden 139
enjoy 139
belief 139
dry 139
plane 139
practic@@ 139
laugh@@ 139
paint 139
cele@@ 139
beat 139
campaign 139
olog@@ 139
kurz@@ 139
brauchten 139
häu@@ 139
arbeiteten 139
erfolgrei@@ 139
verbracht 139
starke 139
bett 139
verhindern 139
wachen 139
werke 139
echten 139
erzähle 139
umgehen 139
fünf@@ 139
institutionen 139
aufnahmen 139
stoßen 139
betrifft 139
neh@@ 139
gkeiten 139
älter 139
krimin@@ 139
fund 138
placed 138
universal 138
patent 138
itu@@ 138
inci@@ 138
aling 138
lic 138
desert 138
volu@@ 138
normally 138
mix 138
mail 138
sign@@ 138
principles 138
int 138
therapy 138
lear@@ 138
stimu@@ 138
sor 138
play@@ 138
standar@@ 138
derek 138
ert. 138
hintergrund 138
dieren 138
übertragen 138
vertrau@@ 138
erweiter@@ 138
bildschirm 138
steller 138
nen. 138
dürfen 138
strö@@ 138
dungs@@ 138
behör@@ 138
erenden 138
einsetzen 138
dolph@@ 137
damage 137
entirely 137
catch 137
consumption 137
lack 137
fit@@ 137
speech 137
thin@@ 137
camp 137
fore@@ 137
gens 137
clou@@ 137
tanz@@ 137
transform 137
95 137
infin@@ 137
tus 137
airplane 137
elegan@@ 137
bein@@ 137
invisible 137
kum@@ 137
schlei@@ 137
bf 137
könnt 137
kennt 137
tue 137
mäß@@ 137
gewisse 137
lebten 137
forschungs@@ 137
hinweg 137
mitteln 137
praktisch 137
dene 137
sterb@@ 137
akt 137
zauber@@ 137
ierten 137
anten 137
wenig@@ 137
ungskraft 137
kompon@@ 137
führten 137
isch@@ 137
gefahr 137
letzt 137
yo 136
controll@@ 136
factory 136
ishing 136
professional 136
keeping 136
spot 136
pel@@ 136
distribu@@ 136
limited 136
everyday 136
nee 136
kni@@ 136
ke. 136
cers 136
warming 136
sister 136
analysis 136
ingu@@ 136
hell@@ 136
frank 136
jud@@ 136
mel 136
bi 136
spit@@ 136
ologe 136
griff 136
hund 136
ungewöhn@@ 136
gehabt 136
schlimm@@ 136
netzwerke 136
malen 136
dienst@@ 136
bereiche 136
gerung 136
zeitalter 136
langsam@@ 136
schwimmen 136
une 135
viruses 135
ograph@@ 135
partici@@ 135
acceler@@ 135
recycl@@ 135
reli@@ 135
integra@@ 135
cate 135
operating 135
husband 135
concerned 135
master 135
deliver 135
dp 135
molecule 135
dynamic 135
cken@@ 135
seriously 135
atta@@ 135
viet@@ 135
option 135
ene@@ 135
robot@@ 135
kap@@ 135
spiegel 135
geld@@ 135
kopf@@ 135
gespielt 135
kogni@@ 135
bauern 135
menten 135
erende 135
fingen 135
begeistert 135
5.000 135
tiefe 135
verbreitet 135
blut 135
kürzlich 135
verlangen 135
beach 134
fell 134
mid@@ 134
believed 134
civilization 134
ce. 134
managed 134
commercial 134
aug@@ 134
diabetes 134
argue 134
advantage 134
languages 134
article 134
tons 134
hate 134
opini@@ 134
horri@@ 134
automo@@ 134
qua@@ 134
glas 134
steps 134
designing 134
opposite 134
bee@@ 134
yesterday 134
2004 134
brow@@ 134
creation 134
toward 134
janu@@ 134
four@@ 134
free@@ 134
propor@@ 134
tivi@@ 134
ize 134
match 134
desire 134
emotion 134
bol@@ 134
meta@@ 134
bed@@ 134
dient 134
ception 134
kus@@ 134
stock@@ 134
esse 134
aner 134
herr 134
fett@@ 134
inen 134
verzwei@@ 134
künstler@@ 134
leistungen 134
wunderbar 134
pfei@@ 134
rücken 134
gebie@@ 134
glücklicherweise 134
behinder@@ 134
ägyp@@ 134
10.000 134
dank@@ 134
opened 133
background 133
seas@@ 133
email 133
whenever 133
electrical 133
followed 133
tural 133
care@@ 133
wea@@ 133
equal 133
majority 133
predict 133
exhi@@ 133
influ@@ 133
65 133
wri@@ 133
anony@@ 133
tent@@ 133
increasingly 133
principle 133
narra@@ 133
beg@@ 133
ld 133
sweise 133
inn 133
stung 133
gabe 133
lichem 133
herausforderungen 133
vermögen 133
geburt 133
disku@@ 133
irak 133
träume 133
versuchten 133
bekamen 133
eingesetzt 133
gezogen 133
igkeit 133
wichti@@ 133
platt@@ 133
gebro@@ 133
erstaunliche 133
adi@@ 132
driven 132
ories 132
dinner 132
generate 132
approach@@ 132
deeply 132
ough 132
ery 132
stadi@@ 132
planet@@ 132
nes@@ 132
stuck 132
thinks 132
spaces 132
bles 132
digit@@ 132
failed 132
poster 132
hang 132
bag@@ 132
sensi@@ 132
exer@@ 132
pathy 132
tomorrow 132
player 132
secre@@ 132
friend@@ 132
ference 132
japan@@ 132
berg@@ 132
sichtlich 132
wahrnehmung 132
wirkt 132
verwandeln 132
streben 132
moderne 132
ktiv 132
knochen 132
verantwortlich 132
spruch 132
schaute 132
ähnliche 132
fiel 132
gewand@@ 132
abhängig 132
opfer 132
babys 132
getötet 132
letter 131
oceans 131
organized 131
whom 131
direct 131
perfectly 131
childhood 131
due 131
2006 131
entreprene@@ 131
nas@@ 131
cer 131
develop@@ 131
constantly 131
ills 131
voices 131
guar@@ 131
pages 131
dialo@@ 131
stian 131
according 131
wearing 131
opening 131
photos 131
forma@@ 131
cour@@ 131
black@@ 131
orig@@ 131
post-@@ 131
sche@@ 131
b. 131
trip 131
nets 131
evil 131
photo@@ 131
stin 131
ald 131
impul@@ 131
phan@@ 131
rand 131
sw 131
tiges 131
nannte 131
telefon 131
fördern 131
tnis 131
weißt 131
geladen 131
genauer 131
gehirne 131
interessieren 131
kapit@@ 131
weißen 131
wurz@@ 131
beeindruck@@ 131
entschei@@ 131
teilung 131
therapie 131
schlüssel@@ 131
militär@@ 131
bloß 131
194@@ 130
woo@@ 130
prop@@ 130
shif@@ 130
vo 130
random 130
graduate 130
cognitive 130
wealth 130
23 130
jump 130
bers 130
signals 130
oxford 130
chil@@ 130
participa@@ 130
define 130
habit@@ 130
prevent 130
l-@@ 130
vice 130
transition 130
chap@@ 130
investig@@ 130
them@@ 130
emis@@ 130
war. 130
insel 130
maus 130
wein@@ 130
mut 130
z. 130
cen 130
wahren 130
bauten 130
kalifornien 130
rechts@@ 130
bekann@@ 130
händen 130
öffentlichkeit 130
nutzt 130
beschäf@@ 130
lieblings@@ 130
richtet 130
gemü@@ 130
stigen 130
unterschie@@ 130
winkel 130
erseits 130
ameisen 130
klini@@ 130
überprü@@ 130
tischer 130
heits@@ 130
diagra@@ 129
drawing 129
volunte@@ 129
isol@@ 129
currently 129
navi@@ 129
compare 129
heal@@ 129
2003 129
pus 129
unless 129
soil 129
50,000 129
cents 129
survival 129
hmen 129
fourth 129
journalist 129
handy 129
drin 129
ön@@ 129
chten@@ 129
trie 129
gehören 129
europä@@ 129
normalen 129
überrascht 129
zusammenzu@@ 129
tigung 129
erkenntnis 129
sorge 129
aufhören 129
schmerz 129
kurzen 129
verbreiten 129
alleine 129
fernseh@@ 129
öffentliche 129
deckt 129
vögel 129
wisst 129
kontext 129
doppelt 129
drän@@ 129
popu@@ 128
gather@@ 128
gry 128
gates 128
surprise 128
great@@ 128
angeles 128
miss 128
stran@@ 128
250 128
cans 128
sport 128
athei@@ 128
eland 128
equivalent 128
sty 128
an-@@ 128
explan@@ 128
dimensions 128
ghana 128
stabili@@ 128
privat@@ 128
erst@@ 128
akzep@@ 128
dauern 128
äne 128
liebt 128
dienen 128
körpers 128
bedeuten 128
eindruck 128
bemerkt 128
inspiriert 128
signale 128
gut. 128
sitz@@ 128
früh 128
eure 128
zeichnungen 128
täusch@@ 128
treibt 128
producing 127
market@@ 127
classroom 127
leaves 127
leadership 127
harder 127
atures 127
experts 127
temper@@ 127
impli@@ 127
failure 127
syl@@ 127
roots 127
ordinary 127
blogs 127
deta@@ 127
iso@@ 127
kins 127
legi@@ 127
affect 127
repli@@ 127
lager 127
mie 127
lebewesen 127
markt@@ 127
verwal@@ 127
mindestens 127
fährt 127
städ@@ 127
täten 127
deinen 127
polizei 127
ppt 127
konzep@@ 127
drück@@ 127
wake 126
chron@@ 126
rural 126
gay 126
horizon@@ 126
d.@@ 126
caused 126
invited 126
alex@@ 126
tough 126
harmon@@ 126
library 126
steel 126
succe@@ 126
frag@@ 126
microsoft 126
tour 126
shall 126
rin@@ 126
tur 126
erer 126
aufbauen 126
verschmu@@ 126
ernährung 126
verschwinden 126
unternehmer 126
verhältnis 126
nde 126
grün 126
seitdem 126
identität 126
häufig 126
sphäre 126
gesprä@@ 126
zählen 126
kurs 126
forder@@ 126
individuen 126
ansicht 126
meiste 126
bahn@@ 126
grundlegende 126
erscheinen 126
persönliche 126
chts 126
lachen 126
sicherheits@@ 126
barer 126
verhaltens@@ 126
musst 126
32 125
suppose 125
drink 125
pet 125
metaphor 125
artificial 125
exam@@ 125
wis@@ 125
activi@@ 125
autonom@@ 125
appl@@ 125
sever@@ 125
olo@@ 125
distribution 125
shapes 125
sim@@ 125
probe 125
exists 125
treated 125
compared 125
multiple 125
charac@@ 125
galaxies 125
alism 125
humor 125
martin 125
cky 125
kenya 125
refer@@ 125
origami 125
keys 125
corruption 125
baum@@ 125
debat@@ 125
fisch@@ 125
anrei@@ 125
schreib@@ 125
wiesen 125
nachbar@@ 125
hoffen 125
ktive 125
lichkeiten 125
wegs 125
fahrer 125
gegensatz 125
schlechten 125
verschieden@@ 125
höher 125
aus. 125
gefahren 125
geschickt 125
tzlich 125
bietet 125
terie 125
ox@@ 124
european 124
one@@ 124
japanese 124
bor 124
continent 124
-up 124
hasn 124
anthropo@@ 124
paying 124
construction 124
hidden 124
negoti@@ 124
aw@@ 124
sec@@ 124
survi@@ 124
wa 124
2001 124
ital 124
fire@@ 124
debate 124
nant 124
weapons 124
skep@@ 124
echn@@ 124
cau@@ 124
illusion 124
raft 124
tumor@@ 124
doku@@ 124
gand@@ 124
mee 124
blü@@ 124
fizieren 124
äd@@ 124
angenommen 124
komplexe 124
könn@@ 124
bestimmen 124
vorteil 124
bienen 124
arbeit@@ 124
verbindet 124
tanz 124
chem 124
erhält 124
gestorben 124
bezahlt 124
nden 124
einheit 124
näher@@ 124
20th 123
appro@@ 123
canada 123
trends 123
crow@@ 123
acts 123
situ@@ 123
army 123
establi@@ 123
stanford 123
contr@@ 123
urban@@ 123
cure 123
joy 123
than@@ 123
lunch 123
double 123
tops 123
weird 123
layer 123
therap@@ 123
embar@@ 123
gain 123
ration@@ 123
mobili@@ 123
circum@@ 123
pes 123
geome@@ 123
nai@@ 123
standards 123
innovative 123
tenden@@ 123
appear 123
inner@@ 123
muscle 123
journali@@ 123
fan 123
welle 123
einiger 123
arkti@@ 123
pfe 123
leiten 123
generationen 123
heisst 123
existieren 123
gäbe 123
erklärung 123
eren. 123
starten 123
soll@@ 123
augenblick 123
brauche 123
nieman@@ 123
musik@@ 123
kari@@ 123
ktor@@ 123
kann. 123
lebenden 123
unglaub@@ 123
gegenwär@@ 123
ziel@@ 123
notwen@@ 123
relativ 123
schni@@ 123
gespräch 123
leiden@@ 123
marine 122
preser@@ 122
actor 122
expression 122
collective 122
boo@@ 122
vehicle 122
brazi@@ 122
righ@@ 122
strategy 122
unding 122
oned 122
syndro@@ 122
described 122
garden 122
mas 122
ug@@ 122
parti@@ 122
represent 122
bear 122
holes 122
coura@@ 122
wars 122
planning 122
mobil@@ 122
pre-@@ 122
han 122
element@@ 122
elling 122
transl@@ 122
itation 122
eleph@@ 122
tie 122
phosp@@ 122
sz@@ 122
kus 122
inneren 122
unterscheiden 122
wichtigen 122
benen 122
vergan@@ 122
brech@@ 122
wobei 122
erfinden 122
gegenteil 122
trug 122
zunehmen@@ 122
existi@@ 122
jugend@@ 122
interagieren 122
tox@@ 121
waves 121
chemicals 121
generations 121
mortality 121
proce@@ 121
upp@@ 121
worldwide 121
pleas@@ 121
discipl@@ 121
copy 121
sub-@@ 121
eric 121
dinosaurs 121
highest 121
facts 121
collect 121
sna@@ 121
britain 121
sci@@ 121
cock@@ 121
mentioned 121
bright 121
manhattan 121
threat 121
transi@@ 121
businesses 121
feelings 121
thesis 121
dul@@ 121
chicken 121
incre@@ 121
stab@@ 121
mo 121
die@@ 121
houses 121
nest 121
bend 121
brasili@@ 121
internet@@ 121
regen 121
dä@@ 121
angeb@@ 121
bevölker@@ 121
versu@@ 121
gieren 121
beob@@ 121
schlüssel 121
mmen 121
züge 121
abschluss 121
drückt 121
quellen 121
beschrän@@ 121
nationen 121
schmerzen 121
bedürf@@ 121
beglei@@ 121
besondere 121
bemer@@ 121
dach 121
werbung 121
sheit 121
sequenzen 121
gefährlich 121
arr@@ 120
cape 120
clip 120
here. 120
percei@@ 120
emerging 120
associated 120
harv@@ 120
grown 120
shoes 120
kit@@ 120
key@@ 120
h-@@ 120
in. 120
associ@@ 120
microscop@@ 120
epi@@ 120
interview 120
bell 120
chemistry 120
worried 120
mista@@ 120
ances 120
blocks 120
violent 120
interaction 120
fossil 120
clinical 120
brothers 120
seat 120
evolution@@ 120
neighborhood 120
kb 120
konser@@ 120
stoffen 120
wenigen 120
natür@@ 120
märkte 120
entdeckung 120
systemen 120
berühr@@ 120
faktor 120
strategie 120
reduzieren 120
soviel 120
annehmen 120
anwenden 120
kulturen 120
schließ@@ 120
berührt 120
sauerstoff 120
steck@@ 120
rechen@@ 120
emotionen 120
zuschau@@ 120
riff 120
bestimm@@ 120
regionen 120
klär@@ 120
chain 119
fat 119
proud 119
weather 119
rapi@@ 119
butt@@ 119
iden@@ 119
ols 119
enjo@@ 119
wired 119
mon 119
lec@@ 119
vote 119
perman@@ 119
disaster 119
dow 119
honest 119
amin@@ 119
entertain@@ 119
wild@@ 119
nett 119
thers 119
shoul@@ 119
tu 119
optimis@@ 119
glam@@ 119
transplan@@ 119
feuer@@ 119
ursprüng@@ 119
holz 119
entwick@@ 119
solch 119
persönlichen 119
bedarf 119
dutz@@ 119
mittleren 119
angeneh@@ 119
rätsel 119
ursprün@@ 119
architekten 119
politiker 119
molecular 118
acci@@ 118
lock 118
technical 118
there. 118
massi@@ 118
losing 118
intellectual 118
andre@@ 118
announ@@ 118
poor@@ 118
100,000 118
democratic 118
migra@@ 118
stop@@ 118
celebra@@ 118
leader 118
expedi@@ 118
wra@@ 118
26 118
od 118
patri@@ 118
grab@@ 118
plic@@ 118
letters 118
windows 118
equipment 118
inspi@@ 118
addition 118
simu@@ 118
forced 118
super 118
melt 118
swa@@ 118
21@@ 118
gul@@ 118
spectrum 118
blatt 118
vas@@ 118
gross@@ 118
schmu@@ 118
bs@@ 118
krank 118
zuge@@ 118
wunden 118
drüben 118
spüren 118
nungs@@ 118
begri@@ 118
schneiden 118
potenzi@@ 118
schmer@@ 118
wachst@@ 118
bruder 118
schwä@@ 118
schrift@@ 118
grundsätzlich 118
beweise 118
entfer@@ 118
verfü@@ 118
unterricht 118
kunft 118
entschul@@ 118
marki@@ 118
papi@@ 118
sprach@@ 118
heavy 117
closed 117
initiative 117
oning 117
department 117
northern 117
grandmother 117
daily 117
ville 117
bine 117
tch 117
parado@@ 117
ading 117
zon@@ 117
resource 117
psycho@@ 117
organs 117
coral 117
alp@@ 117
killing 117
tili@@ 117
programme 117
toile@@ 117
stur@@ 117
geist@@ 117
blau 117
aku@@ 117
erscheint 117
natürlichen 117
bende 117
schaden 117
wirtschaftliche 117
nachbarn 117
präsi@@ 117
medizinische 117
lebenser@@ 117
persönlich 117
entspricht 117
kts 117
unabhängig 117
bestand 117
mung 117
erforsch@@ 117
dliche 117
aspekt 117
flug 117
bibliothe@@ 117
digitalen 117
straßen@@ 117
trinken 117
traditionellen 117
sende 117
sehen. 117
schlimmer 117
wähl@@ 117
dimensionen 117
richt@@ 117
verfügbar 117
wechseln 117
fie 117
amo@@ 116
smell 116
practical 116
cambridge 116
contact 116
avoid 116
alli@@ 116
hospit@@ 116
sexual 116
launched 116
advanced 116
wher@@ 116
remote 116
mountains 116
earth@@ 116
aring 116
taste 116
restaurants 116
saturn 116
consequences 116
700 116
ille 116
ket 116
revolution@@ 116
run@@ 116
lem 116
stig@@ 116
mutter@@ 116
spen@@ 116
maga@@ 116
best@@ 116
stammt 116
südafri@@ 116
verbrachte 116
bedeuten@@ 116
ernä@@ 116
entstanden 116
issen 116
nötig 116
worfen 116
mikrosk@@ 116
gessen 116
digkeit 116
definieren 116
bereichen 116
buchstab@@ 116
schrän@@ 116
messer 116
galaxien 116
basier@@ 116
vorfahren 116
hmt 116
dinosaurier 116
notwendig 116
genom 116
awful 115
chol@@ 115
stac@@ 115
advan@@ 115
substan@@ 115
setting 115
surprised 115
deter@@ 115
rates 115
health@@ 115
married 115
streng@@ 115
roughly 115
tles 115
pleasure 115
pole 115
sight 115
prime 115
spu@@ 115
reci@@ 115
gling 115
occasi@@ 115
3,000 115
cially 115
trials 115
howard 115
atten 115
tedx@@ 115
block@@ 115
nin@@ 115
zit@@ 115
zir@@ 115
mittler@@ 115
wunder 115
erkennt 115
kommen. 115
aufgebaut 115
gesp@@ 115
beschei@@ 115
stech@@ 115
ersetzen 115
strom@@ 115
schuhe 115
kindheit 115
zerstören 115
richtungen 115
konkur@@ 115
tausenden 115
verfahren 115
krä@@ 115
höre 115
steine 115
wechsel 115
springen 115
galaxie 115
bemü@@ 115
folgende 115
selling 114
gles 114
abilities 114
conf@@ 114
intuition 114
lessons 114
dir@@ 114
affec@@ 114
dens 114
essential 114
importance 114
mber@@ 114
sad 114
meaning@@ 114
tony 114
express 114
account 114
800 114
kilometers 114
scan 114
controlled 114
movies 114
ts. 114
reaction 114
cil 114
condu@@ 114
colli@@ 114
teeth 114
pho@@ 114
lux@@ 114
jack 114
rio 114
affected 114
infor@@ 114
lee 114
v-@@ 114
anderth@@ 114
frau@@ 114
gö@@ 114
klo@@ 114
holz@@ 114
pft 114
afrikanischen 114
schau 114
tzu@@ 114
hörten 114
diert 114
schiff 114
mexiko 114
viertel 114
halbe 114
lossen@@ 114
baute 114
hilfs@@ 114
leistungs@@ 114
westlichen 114
anischen 114
korruption 114
regular 113
flas@@ 113
fab@@ 113
hadn 113
user 113
soldiers 113
relative 113
coal 113
illness 113
dealing 113
who@@ 113
ption 113
display 113
buil@@ 113
cultures 113
eigh@@ 113
contain@@ 113
stood 113
users 113
clas@@ 113
proteins 113
metho@@ 113
civili@@ 113
govern@@ 113
nigeri@@ 113
jo 113
witz 113
mund 113
national@@ 113
stil 113
pf 113
langer 113
meer@@ 113
verbrei@@ 113
anhand 113
dunkel@@ 113
gerechtigkeit 113
ologische 113
beschlossen 113
beizu@@ 113
euer 113
skla@@ 113
macht. 113
ärm@@ 113
wird. 113
hängen 113
viert 113
ermu@@ 113
quasi 113
tiker 113
beschäftigen 113
freiwilli@@ 113
helden 113
spielte 113
paraly@@ 112
pacific 112
categ@@ 112
talent 112
sets 112
researchers 112
vable 112
preg@@ 112
long-term 112
jes@@ 112
pag@@ 112
whereas 112
bang 112
effectively 112
ht@@ 112
florida 112
possibilities 112
protection 112
angle 112
prove 112
section 112
ric 112
club 112
homes 112
sour@@ 112
usi@@ 112
gan 112
graphic 112
biot@@ 112
kro@@ 112
eur@@ 112
repar@@ 112
é@@ 112
geschü@@ 112
welchem 112
dran 112
gebeten 112
wahn@@ 112
gegend 112
zerstört 112
hinsicht 112
müll 112
radik@@ 112
ktiven 112
konfron@@ 112
brücke 112
untersucht 112
erlaub@@ 112
schme@@ 112
weit@@ 112
jähr@@ 112
jedenfalls 112
verkehr@@ 112
vergröß@@ 112
bä@@ 112
charakter 112
adult 111
antibio@@ 111
eff@@ 111
ination 111
horse 111
intern@@ 111
wire 111
inning 111
mathematical 111
unds 111
round 111
arrived 111
radical 111
property 111
nervous 111
underneath 111
specifically 111
platform 111
suggest 111
finish 111
gravity 111
maps 111
school@@ 111
primi@@ 111
analog@@ 111
alzheimer 111
ent. 111
fair@@ 111
online-@@ 111
gall@@ 111
minim@@ 111
initi@@ 111
cin 111
ssi@@ 111
abra@@ 111
rote 111
kapu@@ 111
erlebt 111
beein@@ 111
wellen 111
pfle@@ 111
elektrizität 111
winden 111
müsste 111
lehren 111
dunkl@@ 111
hlte 111
löcher 111
ücken 111
hnung 111
eres 111
erwei@@ 111
bakteri@@ 111
gewe@@ 111
kaffee 111
teure 111
zeitung 111
kerl 111
wissenschaften 111
feststellen 111
vorge@@ 111
aufen 111
konflikt 111
curi@@ 110
clock 110
silicon 110
calling 110
barri@@ 110
oral 110
picked 110
orders 110
solved 110
dots 110
expan@@ 110
enzy@@ 110
empty 110
wine 110
bby 110
sophistic@@ 110
magni@@ 110
saved 110
conduc@@ 110
ckets 110
cross 110
ce-@@ 110
repu@@ 110
mmer@@ 110
requi@@ 110
geor@@ 110
spoke 110
steven 110
sharks 110
13@@ 110
sugar 110
thei@@ 110
waff@@ 110
ut 110
von@@ 110
rett@@ 110
molekul@@ 110
stärk@@ 110
hinten 110
teilneh@@ 110
mäßig 110
junger 110
verkehr 110
vermitteln 110
menschlicher 110
aufzubauen 110
nutzung 110
gemeinden 110
lässi@@ 110
erken@@ 110
mern 110
beobachtet 110
zusätz@@ 110
ktes 110
werken 110
ökon@@ 110
entdeckte 110
lediglich 110
spiegel@@ 110
präsentation 110
50.000 110
äs@@ 110
verab@@ 110
faktoren 110
lasse 110
kreieren 110
vorstellungen 110
wirklichen 110
wesentlich 110
experienced 109
stin@@ 109
breath 109
productive 109
sett@@ 109
labor@@ 109
accident 109
zz 109
demand 109
fail@@ 109
suggest@@ 109
existence 109
retro@@ 109
aming 109
cab@@ 109
sation 109
gely 109
suggests 109
considered 109
ush 109
fewer 109
treat@@ 109
variety 109
cards 109
metal 109
m-@@ 109
wings 109
kev@@ 109
tsun@@ 109
fail 109
magnetic 109
ale@@ 109
plans 109
thoughts 109
hen. 109
chemikalien 109
gelen@@ 109
sser 109
zivilisation 109
erkenn@@ 109
folie 109
seln 109
fantastisch 109
erzeu@@ 109
momente 109
entsch@@ 109
dienst 109
bekannte 109
lektion 109
hafte 109
genie@@ 109
erfindung 109
teuer 109
tigte 109
gesundheitswesen 109
statistiken 109
wahrschein@@ 109
franzö@@ 109
gleichheit 109
beantworten 109
skulp@@ 109
medikament 109
buying 108
diet 108
eco@@ 108
ight 108
haw@@ 108
rest@@ 108
distin@@ 108
reme@@ 108
relatively 108
one. 108
sources 108
atory 108
relation 108
bene@@ 108
soft@@ 108
dam 108
radiation 108
australia 108
transport 108
gps 108
evolutionary 108
operate 108
players 108
hallu@@ 108
mali@@ 108
bet 108
explosion 108
may@@ 108
para@@ 108
schnei@@ 108
gat@@ 108
hiv-@@ 108
design@@ 108
ost@@ 108
stärker 108
verknü@@ 108
atmen 108
innere 108
angesehen 108
kühl@@ 108
bedürfnisse 108
sonder@@ 108
blauen 108
mitglieder 108
ations@@ 108
verlust 108
nahe@@ 108
studieren 108
presse 108
abhängi@@ 108
beispielsweise 108
zugänglich 108
verdam@@ 108
stärke 108
teles@@ 108
dunkle 108
zte 108
palä@@ 108
grünen 108
beinahe 108
unglaublichen 108
erwähnt 108
komple@@ 108
medien@@ 108
entworfen 108
dameri@@ 108
gemäl@@ 108
wirkliche 108
sprü@@ 108
besuchen 108
connections 107
director 107
rene@@ 107
require 107
newspaper 107
blan@@ 107
migr@@ 107
pause 107
aries 107
iting 107
stable 107
inf@@ 107
opp@@ 107
elimin@@ 107
ib@@ 107
ri 107
notes 107
maker 107
ships 107
ter-@@ 107
method 107
craft 107
sin 107
kas 107
homo 107
techniques 107
computing 107
tober 107
stry 107
typically 107
convince 107
ee@@ 107
perception 107
dogs 107
curious 107
architect 107
behavi@@ 107
sop@@ 107
fresh 107
spin@@ 107
authenti@@ 107
silk 107
mammo@@ 107
furcht@@ 107
vorbei@@ 107
berichten 107
beweisen 107
biert 107
gesellschaft@@ 107
solange 107
null 107
zweck 107
regierungs@@ 107
gefällt 107
ologischen 107
selten 107
aufbau 107
liefer@@ 107
lustig 107
internationalen 107
identify 106
aded 106
ore@@ 106
lifetime 106
prepared 106
honor 106
ritu@@ 106
efficiency 106
bronx 106
folks 106
valuable 106
testing 106
mode 106
goals 106
defined 106
bad@@ 106
plays 106
scrat@@ 106
agenda 106
scene 106
gold@@ 106
gla@@ 106
invention 106
mented 106
var@@ 106
genu@@ 106
caf@@ 106
pants 106
gore 106
explains 106
serve 106
target 106
characters 106
increasing 106
axis 106
teenager 106
ardo 106
know@@ 106
destru@@ 106
wash@@ 106
programm@@ 106
filter 106
villa@@ 106
crash 106
brian 106
implan@@ 106
stif@@ 106
hie@@ 106
21. 106
mie@@ 106
fabrik 106
durchschnittliche 106
diagramm 106
genü@@ 106
grosse 106
fahrt 106
fän@@ 106
einrichtungen 106
täu@@ 106
möglich@@ 106
geändert 106
müssten 106
insbesondere 106
anpas@@ 106
unterrichten 106
katastrop@@ 106
telefon@@ 106
deutsch@@ 106
tü@@ 106
schluss@@ 106
molekül 106
geschlagen 106
zeug@@ 106
singen 106
komplex 106
geburt@@ 106
schwarzen 106
stellungen 106
entwicklungsländern 106
blieb 106
achse 106
herren 106
willst 106
inhalt 106
artic@@ 105
sees 105
nor 105
former 105
liked 105
centers 105
phr@@ 105
educa@@ 105
ecu@@ 105
definitely 105
sages 105
u.n. 105
sides 105
gap 105
lay 105
00,000 105
aled 105
credit 105
previous 105
sent@@ 105
piano 105
orbit 105
simulation 105
text@@ 105
laboratory 105
statisti@@ 105
smith 105
adverti@@ 105
mama 105
thing. 105
thou@@ 105
fishing 105
sey 105
austr@@ 105
28 105
alterna@@ 105
swim 105
epidemic 105
contin@@ 105
photographs 105
awareness 105
nik 105
use@@ 105
wick@@ 105
den-@@ 105
koll@@ 105
bein 105
tot 105
toten 105
asse 105
saal 105
autor 105
situationen 105
artige 105
riesen@@ 105
schöpf@@ 105
lokalen 105
tlichen 105
einiges 105
empfin@@ 105
grau@@ 105
eindeu@@ 105
diskussion 105
gesichter 105
effektiv 105
äußerst 105
übrig 105
maßstab 105
anteil 105
kehrt 105
mitarbeiter 105
ilfe 105
dna-@@ 105
versor@@ 105
unts 104
ressed 104
intri@@ 104
writer 104
peak 104
naturally 104
employees 104
whit@@ 104
bizar@@ 104
represents 104
marriage 104
facing 104
hero 104
applied 104
mechanis@@ 104
primary 104
ridi@@ 104
brand@@ 104
satis@@ 104
sequ@@ 104
matri@@ 104
eastern 104
boundar@@ 104
ken. 104
dow@@ 104
mana@@ 104
sentence 104
vul@@ 104
personally 104
ulti@@ 104
tables 104
tern@@ 104
open@@ 104
git@@ 104
bai 104
battery 104
quant@@ 104
engagement 104
atoms 104
henry 104
heim 104
tasche 104
ält 104
serie 104
llig 104
schlafen 104
verpflich@@ 104
auf. 104
großmutter 104
arbeitsp@@ 104
gefallen 104
gewohn@@ 104
versteht 104
grüne 104
moralische 104
falten 104
geschäf@@ 104
nachts 104
strahlung 104
treff@@ 104
gramm 104
risiken 104
prinzipien 104
kochen 104
schwierigkeiten 104
schaue 104
glü@@ 104
geschma@@ 104
verring@@ 104
kampagne 104
überqu@@ 104
theme 103
sty@@ 103
ecosystem 103
193@@ 103
ko 103
24@@ 103
nie@@ 103
120 103
bud@@ 103
safety 103
1960 103
rect 103
accept 103
jim 103
clever 103
ipo@@ 103
liquid 103
reti@@ 103
gest 103
introduced 103
dilemm@@ 103
osity 103
vulnerable 103
pack 103
ay@@ 103
factor 103
rier 103
inje@@ 103
febru@@ 103
é 103
mad 103
tw@@ 103
gment 103
pop 103
resili@@ 103
psychiat@@ 103
verti@@ 103
oxyto@@ 103
anal@@ 103
still@@ 103
sach@@ 103
konz@@ 103
roh@@ 103
tet. 103
gegenwart 103
tnisse 103
entstand 103
erkannt 103
gelebt 103
wettbewerb 103
sinni@@ 103
chtern 103
decken 103
beweis 103
schritt@@ 103
verblüff@@ 103
deln 103
sektor 103
digitale 103
außen 103
weiße 103
wärmung 103
nützlich 103
einfa@@ 103
webseite 103
zahn@@ 103
zitat 103
jährigen 103
males 102
breaking 102
struggle 102
mira@@ 102
string 102
tale 102
driver 102
verse 102
visible 102
roads 102
ished 102
stimul@@ 102
schizophren@@ 102
unlike 102
burn 102
common@@ 102
appropriate 102
battle 102
ander 102
favor@@ 102
location 102
survey 102
ladies 102
dimension 102
makers 102
sandwi@@ 102
ek@@ 102
wise 102
mention 102
orange 102
environments 102
exchange 102
tane@@ 102
trillion 102
style 102
kitchen 102
capture 102
risks 102
yeah. 102
reward 102
confidence 102
gation 102
dinosau@@ 102
leon@@ 102
flat 102
planes 102
requ@@ 102
properties 102
tains 102
kapital 102
venue 102
taliban 102
85 102
allgemeinen 102
glamour 102
arz@@ 102
enorme 102
gering@@ 102
gesund 102
tert 102
stärken 102
kapital@@ 102
vorne 102
nive@@ 102
stimmung 102
jahrhunder@@ 102
häusern 102
intellektu@@ 102
ausmaß 102
beschloss 102
beziehen 102
stehe 102
verteilt 102
wüste 102
heißen 102
herstellung 102
erstellt 102
linge 102
bestand@@ 102
erwachsenen 102
holfen 102
chemie 102
ewi@@ 102
schimpansen 102
begei@@ 102
trage@@ 101
carrying 101
joe 101
deeper 101
ks@@ 101
requires 101
phenomen@@ 101
replace 101
sending 101
southern 101
convinced 101
poetry 101
p. 101
generally 101
raising 101
less@@ 101
alist 101
amen 101
frame@@ 101
exploration 101
ctor 101
of-@@ 101
films 101
spiritu@@ 101
miner@@ 101
ax@@ 101
ord 101
pad 101
pir@@ 101
frame 101
wondering 101
broo@@ 101
songs 101
processes 101
tour@@ 101
roof 101
ternal 101
banglades@@ 101
behaviors 101
politicians 101
bob 101
rad@@ 101
fusion 101
astron@@ 101
ames 101
lincol@@ 101
enheit 101
licherweise 101
korre@@ 101
nähr@@ 101
funktionier@@ 101
selbe 101
heran@@ 101
geräusche 101
hnte 101
wieviel 101
läng@@ 101
anstelle 101
handlungen 101
kombination 101
diszi@@ 101
büchern 101
resultat 101
inieren 101
wofür 101
zeigten 101
echtz@@ 101
phän@@ 101
faszin@@ 101
igkeiten 101
beobach@@ 101
schnitt@@ 101
brach 101
geber 101
sitz 101
analyse 101
verbessert 101
hurt 100
the-@@ 100
soci@@ 100
licen@@ 100
strated 100
sav@@ 100
pay@@ 100
ation@@ 100
produc@@ 100
ink 100
rare 100
six@@ 100
germany 100
click 100
switch 100
ims 100
u.k. 100
strength 100
senses 100
hits 100
king@@ 100
crowd 100
psychology 100
interpretation 100
solving 100
watched 100
bow@@ 100
cooking 100
replic@@ 100
ier 100
sensitive 100
need@@ 100
llan@@ 100
emissions 100
internationale 100
tries 100
chimpanze@@ 100
intro@@ 100
mich@@ 100
venti@@ 100
zent@@ 100
vagina 100
za 100
penguins 100
uten 100
zielen 100
kran@@ 100
einfaches 100
belast@@ 100
bogen 100
kanada 100
gegründet 100
solcher 100
rennen 100
ja. 100
langweili@@ 100
vorzustellen 100
bezüglich 100
selbstverständlich 100
tatsäch@@ 100
breite 100
amerikan@@ 100
volk 100
sätze 100
liefern 100
liefert 100
reiche 100
schlägt 100
kriege 100
sowas 100
setzten 100
völ@@ 100
beinhaltet 100
gemeinsame 100
schalt@@ 100
zusammenge@@ 100
fehlen 100
hierher 100
fassung 100
pazi@@ 100
großartigen 100
heirat@@ 100
pau@@ 99
water@@ 99
ballo@@ 99
remin@@ 99
grid 99
comple@@ 99
versi@@ 99
resear@@ 99
arri@@ 99
inev@@ 99
carefully 99
bottle 99
ational 99
runs 99
garage 99
burning 99
multi-@@ 99
received 99
imple@@ 99
ength 99
simpl@@ 99
integr@@ 99
clim@@ 99
stics 99
birthday 99
sustain@@ 99
meetings 99
shark 99
strand 99
se-@@ 99
unit 99
five-@@ 99
derer 99
comfort 99
angiogen@@ 99
diesel@@ 99
zel@@ 99
pä@@ 99
leiter 99
zep@@ 99
rb 99
gerei@@ 99
metapher 99
freundin 99
telef@@ 99
anlage 99
quadrat@@ 99
verwandelt 99
akzeptieren 99
willen 99
rollen 99
verteilung 99
präsentieren 99
aufregend 99
geregt 99
kriegs@@ 99
menschliches 99
gün@@ 99
sech@@ 99
bestä@@ 99
darstellen 99
bemerken 99
sammel@@ 99
här@@ 99
schreibt 99
katastrophe 99
veränderte 99
vertraut 99
spun@@ 99
fün@@ 99
bene 99
untersuchung 99
liebte 99
inseln 99
afrikas 99
stammzellen 99
pollution 98
broke 98
verage 98
administ@@ 98
tax@@ 98
so-@@ 98
centu@@ 98
goods 98
manufacturing 98
manage 98
unusual 98
stupid 98
components 98
ethi@@ 98
co-@@ 98
consumer 98
bucks 98
percentage 98
baseball 98
temporary 98
pulled 98
faith 98
thin 98
copy@@ 98
lifest@@ 98
queen 98
you@@ 98
member 98
ingre@@ 98
mistake 98
illegal 98
musical 98
stol@@ 98
pilot 98
asing 98
staf@@ 98
watt 98
stere@@ 98
ized 98
wheel@@ 98
kore@@ 98
court 98
gover@@ 98
shang@@ 98
invasi@@ 98
entrop@@ 98
finger@@ 98
mith@@ 98
29 98
felder 98
sequenz 98
meist 98
überlegen 98
zwischen@@ 98
ausstellung 98
unfall 98
steuer@@ 98
erwachsene 98
müll@@ 98
verantwor@@ 98
voraus 98
mitta@@ 98
gelegen@@ 98
unterhal@@ 98
tun. 98
weih@@ 98
damen 98
legte 98
wovon 98
kirche 98
physiker 98
agt 98
australien 98
bewus@@ 98
komment@@ 98
speziellen 98
änge 98
vorhersagen 98
ebenen 98
förmi@@ 98
chtete 98
pfund 98
null@@ 98
zität 98
alismus 98
hre 98
veter@@ 97
fascin@@ 97
xide 97
zza 97
ve. 97
verbreitung 97
vorhanden 97
vogel@@ 97
verwir@@ 97
usch 97
interessi@@ 97
verlan@@ 97
sue 96
susta@@ 96
deci@@ 96
success@@ 96
intelli@@ 96
mou@@ 96
risi@@ 96
gehir@@ 96
weis 96
üben 96
caus@@ 95
tribu@@ 95
dia 95
arily 95
thr@@ 95
signi@@ 95
mmer 95
ual 95
uss@@ 95
ktoren 95
sungen 95
gesund@@ 95
fic@@ 94
dered 94
ye 94
questi@@ 94
terr@@ 94
trum 94
gedan@@ 94
stär@@ 94
seits 94
gef@@ 94
zivili@@ 94
kill@@ 93
vil@@ 93
bec@@ 93
stamm@@ 93
richti@@ 93
zufä@@ 93
bewusst@@ 93
unterschei@@ 93
verstän@@ 93
chst 93
increas@@ 92
tual 92
ener@@ 92
theor@@ 92
revol@@ 92
competi@@ 92
simil@@ 92
zwe@@ 92
nachzu@@ 92
haup@@ 92
vehi@@ 91
tech@@ 91
ress 91
confli@@ 91
foc@@ 91
aden 91
mlich 91
kümm@@ 91
fam@@ 90
unger 90
mary 90
q 90
pie@@ 90
stern@@ 90
beding@@ 90
allen@@ 90
ada@@ 89
is. 89
w-@@ 89
transforma@@ 89
tube 89
gendes 89
sst 89
taus@@ 89
citi@@ 88
peop@@ 88
wart 88
abor@@ 88
gil@@ 88
phot@@ 88
mean@@ 88
glau@@ 88
lossen 88
präsen@@ 88
gefäng@@ 88
denten 88
zusä@@ 88
spür@@ 88
bacteri@@ 87
eness 87
elec@@ 87
benu@@ 87
duced 86
inde@@ 86
beha@@ 86
curr@@ 86
crea@@ 86
soft 86
certain@@ 86
compon@@ 86
grü@@ 86
assen 86
konta@@ 86
urspr@@ 86
commun@@ 85
strug@@ 85
surpris@@ 85
what@@ 85
add@@ 85
diff@@ 85
flei@@ 85
mexi@@ 85
sons 85
stim@@ 85
spru@@ 85
schir@@ 85
nö@@ 85
fang 85
entrepr@@ 84
scop@@ 84
öffent@@ 84
verfüg@@ 84
schal@@ 84
affe@@ 83
aster 83
seri@@ 83
mmt 83
masch@@ 83
benö@@ 83
hood 82
tra 82
sud@@ 82
ih@@ 82
gangen 82
schre@@ 82
year-@@ 81
partment 81
espe@@ 81
hlen@@ 81
erwachsen@@ 81
bür@@ 81
turen 81
maß 81
dama@@ 80
oked 80
metaph@@ 80
manufac@@ 80
hus@@ 80
absol@@ 80
follo@@ 79
alo@@ 79
turing 79
gelö@@ 79
kation 79
partic@@ 78
eil 78
profess@@ 78
viol@@ 78
ee 78
eben@@ 78
genan@@ 78
troffen 78
vulner@@ 77
progra@@ 77
strat@@ 77
dol@@ 77
prepar@@ 77
vy 77
überra@@ 77
amei@@ 77
samkeit 77
proper@@ 76
spee@@ 76
bak@@ 76
py@@ 76
dacht 76
kön@@ 76
dür@@ 76
fot@@ 76
mäd@@ 76
krat@@ 76
rän@@ 76
medikam@@ 76
ernähr@@ 76
commer@@ 75
agri@@ 75
compan@@ 75
distri@@ 75
schlüs@@ 75
aufmerk@@ 75
ind 74
ve-@@ 74
coo@@ 74
brilli@@ 74
vered 74
quot@@ 74
zö@@ 74
herauszu@@ 74
gebur@@ 74
architek@@ 74
archite@@ 74
foun@@ 73
usual 73
indepen@@ 73
zations 73
tude 73
aly@@ 73
perspe@@ 73
rem 73
trou@@ 72
eping 72
ually 72
justi@@ 72
… 72
ston 72
kir@@ 72
ameri@@ 72
gir@@ 71
muse@@ 71
expen@@ 71
+ 71
sth@@ 71
á@@ 71
asse@@ 71
mam@@ 71
mitt@@ 71
nien 71
näch@@ 71
erfahr@@ 71
häufi@@ 71
wettbewer@@ 71
long-@@ 70
ama 70
ira@@ 70
manu@@ 70
whi@@ 70
relev@@ 70
aper 70
.. 70
abhän@@ 70
zusam@@ 70
oms 69
with@@ 69
tely 69
eth 69
stly 69
nia 69
pan 69
gery 69
disc@@ 69
bili@@ 69
nahr@@ 69
dere 69
verhäl@@ 69
wesent@@ 69
democra@@ 68
weal@@ 68
moun@@ 68
zens 68
deep@@ 68
nee@@ 68
vels 68
arly 68
listen@@ 68
zau@@ 68
grupp@@ 68
stud@@ 67
read@@ 67
danger@@ 67
doc@@ 67
dings 67
infra@@ 67
phen@@ 67
hm@@ 67
jä@@ 67
abo@@ 66
other@@ 66
oud 66
sugge@@ 66
batter@@ 66
keiten 66
präsent@@ 66
unterschied@@ 66
lieder 66
fortunately 65
goog@@ 65
rely 65
fic 65
vide@@ 65
tempor@@ 65
fs@@ 65
spie@@ 65
sauer@@ 65
class@@ 64
imp@@ 64
alia 64
consci@@ 64
ond 64
mous 64
kräf@@ 64
blich 64
geg@@ 64
auswirk@@ 64
inging 63
astrop@@ 63
daugh@@ 63
mathema@@ 63
busin@@ 63
ision 63
collea@@ 63
let@@ 63
world@@ 63
decisi@@ 63
confi@@ 63
afghan@@ 63
kilome@@ 63
zahlt 63
ergeb@@ 63
umgeb@@ 63
dnis 63
neigh@@ 62
condi@@ 62
alls 62
ttle 62
stic@@ 62
ires 62
ause 62
enced 62
event@@ 62
experi@@ 61
diffic@@ 61
libr@@ 61
kind@@ 61
dation 61
atmosp@@ 61
ire 61
verursa@@ 61
immedi@@ 60
engine@@ 60
pon 60
eri@@ 60
minu@@ 60
vag@@ 60
wichtig@@ 60
erungs@@ 60
bang@@ 59
teach@@ 59
evi@@ 59
ony@@ 59
pak@@ 59
him@@ 59
einflus@@ 59
verbin@@ 59
molekü@@ 59
konzent@@ 59
mption 58
ices 58
mor 58
rs 58
com 58
boun@@ 58
mote 58
ban 58
poe@@ 58
bron@@ 58
clear@@ 58
fiel@@ 58
ings@@ 58
pollu@@ 57
gle 57
choo@@ 57
big@@ 57
traff@@ 57
won@@ 57
rul@@ 57
ington 57
hori@@ 57
recy@@ 57
transp@@ 57
halten@@ 57
diskus@@ 57
schirm 57
grundsä@@ 57
zug@@ 57
expe@@ 56
vil 56
abili@@ 56
wirt@@ 56
zwi@@ 56
geräu@@ 56
cei@@ 55
machin@@ 55
satur@@ 55
beh@@ 55
medic@@ 55
ap 55
bile 55
gebra@@ 55
tex 55
inier@@ 55
valu@@ 54
pid 54
ross 54
absolu@@ 54
sug@@ 54
erkan@@ 54
kürz@@ 54
kör@@ 54
› 54
‹ 54
ough@@ 53
environ@@ 53
eing 53
edu@@ 53
figh@@ 53
einfl@@ 53
konfer@@ 53
strahl@@ 53
jenigen 53
liebl@@ 53
iness 52
pedia 52
internation@@ 52
asy 52
midd@@ 52
psy@@ 52
face@@ 52
ada 51
knowle@@ 51
rying 51
signific@@ 51
pengu@@ 51
kehr 51
zept 51
keit 51
müs@@ 51
job@@ 50
chur@@ 50
protot@@ 50
vent 50
iety 50
americ@@ 50
mers 50
beispiel@@ 50
fundam@@ 50
ersta@@ 50
oze@@ 50
wahrneh@@ 50
übri@@ 50
cess@@ 49
carb@@ 49
beauti@@ 49
ordn@@ 49
coll@@ 49
wiki@@ 49
tötet 49
ultima@@ 49
oce@@ 48
campaig@@ 48
seem@@ 48
cum@@ 48
photogra@@ 48
cris@@ 48
oly@@ 48
vity 48
valent 48
ktu@@ 48
strateg@@ 48
vereinig@@ 48
zusagen 48
verhalten@@ 48
concern@@ 47
zy 47
rais@@ 47
zar@@ 47
simp@@ 47
strate@@ 47
mbers 47
amer@@ 47
gebe@@ 47
chtigkeit 47
män@@ 47
wett@@ 47
quick@@ 46
landscap@@ 46
vey 46
gründet 46
avo@@ 45
remark@@ 45
call@@ 45
prac@@ 45
earli@@ 45
tty 45
at. 45
soldi@@ 45
extrem@@ 45
stab 45
° 45
gä@@ 45
there@@ 44
previ@@ 44
cient 44
inven@@ 44
spea@@ 44
grow@@ 44
fashi@@ 44
soc@@ 44
eting 44
gala@@ 44
oka@@ 44
vorhan@@ 44
öhn@@ 43
rieb 43
prise 42
cogni@@ 42
symp@@ 42
omen@@ 42
energ@@ 42
bibli@@ 42
verständlich 42
beeinflus@@ 42
gespro@@ 42
tioned 41
sup@@ 41
famili@@ 41
yel@@ 41
dit 41
aufgab@@ 41
geneh@@ 41
milliar@@ 41
publik@@ 41
rät@@ 41
equi@@ 40
con 40
scienti@@ 40
princi@@ 40
) 40
every@@ 40
cess 40
auton@@ 40
häus@@ 40
geschwindi@@ 40
ession@@ 39
ques 39
anno@@ 39
adul@@ 39
selves 39
responsi@@ 39
agieren 39
forschen 39
dden 38
britan@@ 38
happen@@ 38
pian@@ 38
issu@@ 38
vili@@ 38
dab@@ 38
lik@@ 38
weili@@ 38
kunde 38
sands 37
ularly 37
euro@@ 37
hri@@ 37
sili@@ 37
ficial 37
mber 37
deb@@ 37
ange 37
zugäng@@ 37
storben 37
ermög@@ 37
genheit 37
gues 36
anim@@ 36
osau@@ 36
pers@@ 36
sequences 36
ring@@ 36
engl@@ 36
interess@@ 36
convin@@ 35
actu@@ 35
intelle@@ 35
iti 35
malari@@ 35
aum 35
mittl@@ 35
karri@@ 35
plö@@ 35
anthro@@ 34
appropri@@ 34
performan@@ 34
rd 34
vid 34
scap@@ 34
through@@ 34
xic@@ 34
att 34
olly@@ 34
stert 34
herausforder@@ 34
teili@@ 34
tali@@ 33
ghtly 33
oxy@@ 33
electri@@ 33
= 33
kalifor@@ 33
½ 33
mög@@ 33
itely 32
dee@@ 32
tish 32
kle 32
base@@ 32
hindern 32
schimpan@@ 32
again@@ 31
suc@@ 31
passion@@ 31
fically 31
effici@@ 31
milit@@ 31
unity 31
volun@@ 31
ó@@ 31
fft 31
verbra@@ 31
hmen@@ 31
perfor@@ 30
notic@@ 30
child@@ 30
resour@@ 30
ctly 30
² 30
zeitig 30
ehen 30
geschie@@ 30
solu@@ 29
patter@@ 29
easi@@ 29
bilities 29
sear@@ 29
erweise 29
bezieh@@ 29
erzä@@ 29
your@@ 28
socie@@ 28
@ 28
trilli@@ 28
marke@@ 28
hren@@ 28
hundre@@ 28
chers 28
zine 28
ousness 27
í@@ 27
percent@@ 27
pagne 27
è@@ 27
toge@@ 27
safe@@ 27
phar@@ 27
capac@@ 27
inte@@ 27
grou@@ 27
natu@@ 27
gement 27
meth@@ 27
mathe@@ 27
leist@@ 27
verän@@ 27
onnen 27
psychi@@ 27
import@@ 26
effec@@ 26
shou@@ 26
jour@@ 26
istan 26
nst 26
wech@@ 26
ould 26
verblü@@ 26
bevölk@@ 26
großbritan@@ 26
ult 25
employe@@ 25
angi@@ 25
ghan@@ 25
feed@@ 25
diab@@ 25
wus@@ 25
ressour@@ 25
geschaff@@ 25
‟ 25
alg@@ 24
cals 24
maj@@ 24
awar@@ 24
deca@@ 24
marri@@ 24
stero@@ 24
tol@@ 24
presi@@ 24
accor@@ 24
isla@@ 24
flori@@ 24
straß@@ 24
gesell@@ 24
restau@@ 24
elektri@@ 24
famil@@ 23
ske@@ 23
til 23
chro@@ 23
coff@@ 23
prinzipi@@ 23
fasz@@ 23
schied 23
schieden 23
beinhal@@ 23
ihr@@ 23
benef@@ 22
tremend@@ 22
plicated 22
ogen@@ 22
europe@@ 22
avail@@ 22
hosp@@ 22
intellec@@ 22
possi@@ 22
bedingt 22
eicht 22
jem@@ 22
lieb 22
amera 22
ement@@ 21
rant 21
# 21
wies@@ 21
haupt 21
xt 21
geschw@@ 21
ächlich 21
‚ 21
kalien 21
two@@ 20
beau@@ 20
comfort@@ 20
vail@@ 20
movi@@ 20
dise@@ 20
abli@@ 20
funden 20
haupts@@ 20
zeital@@ 20
rhy@@ 19
mole@@ 19
relation@@ 19
ruption 19
exac@@ 19
( 19
nerv@@ 19
.b. 19
sep@@ 19
fert 19
kratie 19
dafri@@ 19
agen 19
pover@@ 18
schizop@@ 18
foreig@@ 18
childr@@ 18
auß@@ 18
för@@ 18
künf@@ 18
birth@@ 17
tea@@ 17
langu@@ 17
etz 17
gegent@@ 17
bess@@ 17
β@@ 17
fren@@ 16
invisi@@ 16
ñ@@ 16
ith 16
geria 16
dn 16
sophi@@ 16
seit@@ 16
‒ 16
gni@@ 15
where@@ 15
intu@@ 15
opport@@ 15
efully 15
diag@@ 15
posite 15
à 15
gem@@ 15
ungefä@@ 15
zune@@ 15
exi@@ 14
norm@@ 14
astern 14
paci@@ 14
ote 14
pflich@@ 14
onlin@@ 14
rough@@ 13
weapon@@ 13
ah. 13
^ 13
galaxi@@ 13
dimen@@ 13
europ@@ 13
autom@@ 13
ü 13
fahr 13
mosp@@ 13
häre 13
stom@@ 12
incredi@@ 12
thom@@ 12
telev@@ 12
complex@@ 12
manhat@@ 12
emo@@ 12
det@@ 12
unser@@ 12
letzten@@ 12
chic@@ 11
began@@ 11
curity 11
rami@@ 11
lebe@@ 11
quas@@ 11
versums 11
ürf@@ 11
chir@@ 10
galax@@ 10
dna@@ 10
mexic@@ 10
does@@ 10
tality 10
ç@@ 10
ã@@ 10
feel@@ 10
aga@@ 10
diabet@@ 10
cisco 10
äg@@ 10
gespi@@ 10
alzhei@@ 10
viell@@ 10
prinzi@@ 10
minde@@ 9
cules 9
califor@@ 9
vog@@ 9
falt 9
zumin@@ 9
ê@@ 8
í 8
_ 8
cept 8
entre@@ 8
ution@@ 8
slow@@ 8
stead 8
micha@@ 8
ernsth@@ 8
ttel 8
züglich 8
vices 7
industr@@ 7
expon@@ 7
raid 7
pment 7
irgen@@ 7
osop@@ 7
onder@@ 7
 7
buchstä@@ 7
ully 6
degre@@ 6
obvi@@ 6
ween 6
lemm@@ 6
kog@@ 6
viron@@ 6
tice 6
* 6
mend@@ 6
zop@@ 6
äume 6
trotz@@ 6
ó 6
econ@@ 5
ø@@ 5
â@@ 5
yester@@ 5
garti@@ 5
intel@@ 5
elek@@ 5
¥ 5
 5
 5
pite 4
meet@@ 4
othe@@ 4
ā@@ 4
fore 4
ú@@ 4
อ@@ 4
ernt 4
ück 4
zhei@@ 4
vertr@@ 4
beson@@ 4
ö 4
flä@@ 4
` 4
niem@@ 4
­ 4
 4
necess@@ 3
ô@@ 3
goti@@ 3
leader@@ 3
molecu@@ 3
liqu@@ 3
disci@@ 3
bras@@ 3
â 3
 3
 3
£ 3
eler@@ 3
smit@@ 3
³ 3
ä 3
hund@@ 3
verbess@@ 3
orith@@ 3
kens@@ 3
β 3
instit@@ 3
¼ 3
entde@@ 3
× 3
œ@@ 3
ë@@ 2
ï@@ 2
è 2
casi@@ 2
restauran@@ 2
perha@@ 2
€ 2
送@@ 2
你@@ 2
葱 2
ร 2
่ 2
\ 2
bekan@@ 2
beina@@ 2
bey@@ 2
erlau@@ 2
jeman@@ 2
© 2
`@@ 2
å@@ 2
indivi@@ 2
windo@@ 1
underne@@ 1
denly 1
unities 1
devel@@ 1
ă@@ 1
ť 1
effi@@ 1
ē 1
ย@@ 1
ย 1
elet@@ 1
tomor@@ 1
ć 1
ý@@ 1
﻿ 1
ō@@ 1
irgendet@@ 1
¾ 1
ledig@@ 1
š@@ 1
jeden@@ 1
， 1
á 1
к@@ 1
ë 1
® 1
à@@ 1
ӓ@@ 1
üng@@ 1
î@@ 1
richt 1
paig@@ 1
